▁xxunk	0
▁xxpad	0
▁xxbos	0
▁xxeos	0
▁xxfld	0
▁xxmaj	0
▁xxup	0
▁xxrep	0
▁xxwrep	0
<unk>	0
▁	-2.10968
.	-3.35849
,	-3.42944
▁v	-3.97413
▁a	-3.99003
▁se	-4.45505
a	-4.52882
▁na	-4.55133
m	-4.80673
y	-4.95166
u	-4.98697
▁je	-4.99521
▁s	-5.07259
▁z	-5.17624
i	-5.1874
▁(	-5.28701
▁do	-5.31004
o	-5.53215
ch	-5.55053
▁"	-5.60311
ho	-5.61689
▁po	-5.67267
▁byl	-5.69342
em	-5.70489
▁ve	-5.71931
▁k	-5.76148
▁pro	-5.79852
e	-5.82606
)	-5.83896
▁o	-5.84575
▁roce	-5.84862
▁od	-5.8778
"	-5.87848
▁jako	-5.91059
▁i	-5.93448
▁za	-5.94492
▁roku	-5.98831
-	-6.01622
ů	-6.06922
s	-6.08975
▁/	-6.14483
▁že	-6.20822
mi	-6.22689
▁byla	-6.25048
▁jeho	-6.26303
▁jsou	-6.27037
í	-6.30292
).	-6.49982
:	-6.53555
▁ale	-6.53853
▁které	-6.54262
▁který	-6.56372
ou	-6.57921
▁při	-6.5798
▁také	-6.60136
▁až	-6.63065
▁nebo	-6.63584
ní	-6.65175
é	-6.65731
▁–	-6.73595
),	-6.73683
▁to	-6.74185
▁bylo	-6.75996
ka	-6.77464
ové	-6.80571
á	-6.8311
▁u	-6.8623
>	-6.89624
▁která	-6.91535
▁mezi	-6.92168
▁<	-6.92581
▁ze	-6.93997
▁doc	-6.9403
▁„	-6.95751
t	-6.97251
▁tak	-6.97722
▁první	-6.98097
▁pod	-7.00496
▁si	-7.00498
▁však	-7.02723
▁byly	-7.03124
na	-7.03718
▁kde	-7.04554
▁letech	-7.05372
▁ne	-7.06035
v	-7.06545
▁let	-7.07837
",	-7.09089
k	-7.10893
ně	-7.11165
▁vy	-7.1453
n	-7.15214
ý	-7.15654
mu	-7.15792
ce	-7.1583
▁století	-7.16088
ě	-7.16329
▁má	-7.16666
ky	-7.17909
z	-7.18006
▁před	-7.19458
c	-7.19809
d	-7.22591
ná	-7.23785
ová	-7.25486
▁zde	-7.26175
l	-7.27645
▁své	-7.28009
▁podle	-7.30947
ku	-7.31224
ské	-7.34685
▁již	-7.35136
▁jejich	-7.35241
ech	-7.37061
▁pak	-7.3915
ci	-7.39727
".	-7.4009
▁později	-7.4119
▁další	-7.42989
né	-7.43594
▁aby	-7.44541
▁být	-7.45015
▁("	-7.48046
▁či	-7.48655
▁když	-7.50095
ových	-7.51697
ovi	-7.5235
ých	-7.5262
“	-7.53604
▁ke	-7.53612
r	-7.5402
p	-7.55792
nou	-7.55905
▁během	-7.57662
▁než	-7.58336
▁kdy	-7.59217
ovou	-7.60194
▁de	-7.60644
▁jen	-7.60795
ská	-7.61135
▁proti	-7.61199
b	-7.61614
▁její	-7.61922
▁nad	-7.62421
▁mu	-7.63858
▁by	-7.63934
▁stal	-7.64106
ek	-7.64389
li	-7.6772
it	-7.67865
en	-7.67999
▁pouze	-7.70902
in	-7.70927
ovat	-7.72435
ský	-7.73247
▁době	-7.73309
▁2	-7.73536
ne	-7.73804
▁co	-7.73963
cí	-7.74452
uje	-7.74591
▁pře	-7.75286
ského	-7.7547
kou	-7.77892
▁může	-7.79929
▁této	-7.81021
▁poté	-7.8124
š	-7.81929
▁města	-7.82224
▁přes	-7.82321
▁-	-7.83003
▁měl	-7.83395
▁území	-7.8373
la	-7.83837
▁ji	-7.84316
▁velmi	-7.84648
;	-7.84893
j	-7.8516
ový	-7.85706
č	-7.86094
▁jak	-7.86136
te	-7.86253
▁české	-7.8664
▁části	-7.87789
▁bez	-7.87963
g	-7.88536
er	-7.88859
▁ještě	-7.88958
▁3	-7.90144
le	-7.90332
no	-7.90402
▁15	-7.90488
")	-7.90622
me	-7.9091
f	-7.92047
▁tento	-7.92656
▁více	-7.92696
ova	-7.93438
us	-7.9369
h	-7.94356
▁například	-7.94577
▁což	-7.95311
▁část	-7.95324
▁dvou	-7.95434
ný	-7.95716
ově	-7.96278
ého	-7.96464
▁několik	-7.97087
▁proto	-7.9738
▁dva	-7.9752
ž	-7.97618
ra	-7.98097
'	-7.98864
▁16	-7.99719
ta	-8.00034
il	-8.00237
▁tedy	-8.01246
x	-8.0146
▁není	-8.02017
ách	-8.03162
▁nachází	-8.03953
ny	-8.0444
▁1	-8.04794
▁období	-8.05012
▁mají	-8.05961
▁svého	-8.0618
▁hlavní	-8.07905
▁kteří	-8.07957
▁dále	-8.0862
po	-8.08715
ům	-8.09102
▁4	-8.09509
al	-8.09584
▁především	-8.09591
ských	-8.10316
▁svou	-8.1032
▁druhé	-8.10487
▁1.	-8.10969
ování	-8.11282
skou	-8.11586
▁protože	-8.11646
▁války	-8.11723
▁už	-8.12528
ných	-8.1376
▁často	-8.13826
ni	-8.14045
▁tři	-8.14925
st	-8.15154
▁byli	-8.15157
je	-8.15504
▁roz	-8.15826
▁místo	-8.15959
▁září	-8.16388
▁20.	-8.16657
▁oblasti	-8.17024
▁tím	-8.17091
se	-8.17627
▁jej	-8.17733
▁dne	-8.17835
▁jan	-8.17966
▁získal	-8.19501
▁5	-8.2003
lo	-8.21403
▁lze	-8.21524
▁tato	-8.21813
ují	-8.23032
ie	-8.23118
▁město	-8.23219
▁zejména	-8.23491
▁díky	-8.23606
▁spolu	-8.23658
▁km	-8.24168
▁asi	-8.24189
▁b	-8.24393
▁jeden	-8.24646
▁kterou	-8.25407
▁tyto	-8.25469
▁tzv	-8.26052
da	-8.26185
▁re	-8.26555
▁dalších	-8.26842
▁dvě	-8.26855
▁např	-8.27213
on	-8.27239
▁tohoto	-8.27548
oval	-8.27651
▁14	-8.27778
at	-8.27795
▁10	-8.2782
ového	-8.2909
el	-8.29268
▁(19	-8.29744
ým	-8.30068
2	-8.31529
▁velké	-8.3155
de	-8.31742
ba	-8.31773
▁patří	-8.32294
▁listopadu	-8.32426
▁sv	-8.32603
▁rok	-8.32663
▁společnosti	-8.32962
▁nové	-8.33301
▁měla	-8.3342
▁ani	-8.34225
▁6	-8.34413
▁praze	-8.34578
ko	-8.34867
is	-8.35224
to	-8.35333
▁toho	-8.35379
▁světové	-8.36908
ec	-8.37296
es	-8.37471
▁ha	-8.37541
▁r	-8.38101
▁p	-8.38253
nu	-8.38444
▁začal	-8.38887
an	-8.39539
▁vlastní	-8.40069
▁13	-8.40514
▁všechny	-8.40577
▁12	-8.40643
▁obyvatel	-8.40704
man	-8.40931
sko	-8.41066
▁strany	-8.41462
▁nich	-8.41475
▁pokud	-8.41978
▁té	-8.42021
1	-8.42268
ov	-8.42876
▁nakonec	-8.4321
▁mohou	-8.43347
ovým	-8.43394
ův	-8.43427
▁některé	-8.43565
▁došlo	-8.43573
ické	-8.43672
▁000	-8.43705
▁součástí	-8.44455
▁ten	-8.44507
▁opět	-8.4473
▁l	-8.45192
▁všech	-8.45215
ma	-8.45242
▁mnoho	-8.4525
▁č	-8.45454
▁několika	-8.45535
▁kostel	-8.45612
▁května	-8.4571
▁19.	-8.45737
▁společnost	-8.46219
▁kolem	-8.46312
3	-8.46469
cích	-8.46559
do	-8.47014
re	-8.47078
▁kvůli	-8.47118
▁rámci	-8.47171
ami	-8.47192
▁těchto	-8.47444
▁d	-8.47784
za	-8.4802
▁poslední	-8.48447
▁f	-8.48601
▁n	-8.48804
–	-8.48892
▁října	-8.48897
▁doby	-8.49225
▁tomu	-8.49371
▁svých	-8.49462
▁smrti	-8.49608
"),	-8.4961
▁svůj	-8.49848
▁ta	-8.50114
ze	-8.50405
▁ob	-8.50629
▁skupiny	-8.51339
ace	-8.51368
ice	-8.51536
").	-8.5179
▁pomocí	-8.52001
▁místě	-8.52023
▁též	-8.52159
tu	-8.52848
▁června	-8.53645
▁tu	-8.53759
▁the	-8.54098
▁mimo	-8.5424
▁kromě	-8.54561
▁ii	-8.54795
ii	-8.55001
od	-8.55251
▁jiné	-8.55316
▁obce	-8.55485
▁g	-8.55566
ovy	-8.55731
ter	-8.56698
nice	-8.57118
▁původní	-8.57227
▁h	-8.57279
w	-8.57316
ty	-8.57468
▁of	-8.57873
▁zemřel	-8.58091
▁7	-8.58113
▁poprvé	-8.58252
▁července	-8.58298
“.	-8.58787
▁bude	-8.58874
▁2014	-8.59142
▁8	-8.59368
vá	-8.59381
▁země	-8.59952
▁rovněž	-8.60378
ného	-8.60472
▁základní	-8.60558
os	-8.60706
ř	-8.60762
▁tomto	-8.60798
▁práce	-8.60851
▁%	-8.61031
pa	-8.61089
▁název	-8.61236
▁ledna	-8.61534
▁národní	-8.61595
▁severní	-8.61874
▁0),	-8.62223
▁formula	-8.62314
lí	-8.62698
▁svým	-8.62754
ly	-8.62904
▁2.	-8.63014
▁dubna	-8.63128
ve	-8.6313
▁března	-8.63267
▁c	-8.63307
▁ovšem	-8.63425
▁téměř	-8.63584
▁republiky	-8.63755
▁prvním	-8.63882
▁následně	-8.6436
▁la	-8.64793
▁srpna	-8.65027
▁působil	-8.65054
▁stala	-8.65133
ám	-8.65664
▁volbách	-8.65967
▁tvoří	-8.66338
ře	-8.67148
▁dnes	-8.67183
▁toto	-8.67207
▁prosince	-8.67462
ním	-8.67498
▁straně	-8.67976
▁členem	-8.6838
▁zá	-8.6843
▁zároveň	-8.68586
▁světa	-8.68854
▁původně	-8.68943
ované	-8.69454
▁postupně	-8.69482
▁2010	-8.6951
▁stejně	-8.69768
ina	-8.69775
▁jižní	-8.6994
▁počet	-8.70066
▁20	-8.70109
kem	-8.70153
vý	-8.70252
▁usa	-8.71027
ing	-8.71183
▁praha	-8.7136
▁znovu	-8.71493
▁jehož	-8.71654
▁systém	-8.71755
▁konci	-8.71767
▁něj	-8.71872
▁různých	-8.71876
ků	-8.71892
▁možné	-8.72023
▁jí	-8.72044
▁josef	-8.72251
the	-8.72609
▁jedná	-8.72747
lé	-8.72904
▁syn	-8.72926
▁některých	-8.72931
▁jedno	-8.73342
▁života	-8.73365
▁celé	-8.73397
ar	-8.7378
▁lidí	-8.73837
čí	-8.73887
▁větší	-8.7407
▁musí	-8.74093
4	-8.74335
or	-8.74362
▁cm	-8.74522
▁stále	-8.74839
ích	-8.75241
aci	-8.75413
▁státní	-8.75453
▁společně	-8.75471
ická	-8.75901
▁čtyři	-8.75959
▁český	-8.76372
▁kon	-8.7653
▁17	-8.76924
et	-8.7717
▁2012	-8.77187
▁2013	-8.77378
sa	-8.77701
▁nej	-8.77756
▁případě	-8.78073
▁února	-8.78178
▁právě	-8.78224
▁názvem	-8.78349
▁něm	-8.7838
▁včetně	-8.78978
ká	-8.79192
▁tom	-8.79276
▁2011	-8.80257
▁střední	-8.8046
▁tří	-8.80497
▁jméno	-8.80636
▁vlády	-8.80741
▁metrů	-8.81237
▁množství	-8.81237
▁in	-8.81546
ském	-8.81796
▁umění	-8.819
▁9	-8.82035
▁největší	-8.82055
▁narodil	-8.82116
▁nový	-8.82215
ští	-8.82224
ří	-8.82934
▁jim	-8.8303
ským	-8.83249
▁třetí	-8.83339
ců	-8.83389
ným	-8.83398
▁ú	-8.8354
▁titul	-8.83792
va	-8.83888
▁městě	-8.83962
ost	-8.8422
▁válce	-8.84277
▁tehdy	-8.84321
▁2008	-8.84399
▁mm	-8.84626
▁obvykle	-8.84977
▁jedním	-8.85035
▁okolí	-8.85174
▁prostředí	-8.85391
ed	-8.85411
▁2006	-8.85483
▁mnoha	-8.85784
▁2009	-8.85919
▁(18	-8.86041
▁11	-8.86231
▁18.	-8.86368
▁obec	-8.8637
▁celkem	-8.86394
▁di	-8.86456
“,	-8.86545
ými	-8.8664
ha	-8.86756
▁pří	-8.86933
ení	-8.87024
▁druhů	-8.87104
▁někdy	-8.87226
19	-8.87345
▁zatímco	-8.87449
▁sám	-8.87758
pl	-8.8779
vy	-8.87809
ia	-8.87909
ních	-8.87998
▁roli	-8.88364
▁marie	-8.88423
če	-8.88601
▁rodu	-8.88735
▁zcela	-8.88756
ím	-8.89393
▁kostela	-8.89402
by	-8.89445
▁školy	-8.89534
ry	-8.89593
dy	-8.89673
ton	-8.89712
▁typu	-8.89737
▁dobu	-8.89901
ska	-8.90119
▁filmu	-8.90375
ja	-8.90403
ji	-8.90425
▁většina	-8.90448
▁svém	-8.90782
▁většinou	-8.9082
▁tam	-8.91059
▁roky	-8.91098
jí	-8.91102
▁2016	-8.91546
ující	-8.91667
ickou	-8.9179
▁základě	-8.92248
ém	-8.92313
▁2007	-8.92492
du	-8.92629
▁j	-8.92684
▁přičemž	-8.92697
▁systému	-8.9275
mo	-8.92811
▁přímo	-8.93225
▁začala	-8.93251
▁místní	-8.93271
nost	-8.93399
tr	-8.93411
der	-8.93426
▁život	-8.93864
▁používá	-8.93935
např	-8.94421
▁zvolen	-8.94704
ic	-8.94783
▁jde	-8.94869
▁2015	-8.94872
▁počátku	-8.9521
▁zařízení	-8.95352
▁pracoval	-8.9536
▁král	-8.95445
▁skupina	-8.95472
▁den	-8.95603
▁tuto	-8.96047
▁3.	-8.96093
ga	-8.96188
ň	-8.96212
▁jiných	-8.96355
▁polovině	-8.96553
▁jež	-8.96557
▁pa	-8.96766
▁rozdíl	-8.96955
▁hlavním	-8.97292
▁hor	-8.97358
▁nichž	-8.97462
ník	-8.9774
▁jiří	-8.97752
▁dokonce	-8.97755
▁rady	-8.97819
▁t	-8.98032
▁funkci	-8.98168
son	-8.98178
ol	-8.98647
▁jana	-8.98847
kov	-8.98894
ge	-8.98979
děl	-8.99104
▁film	-8.99187
kon	-8.99318
ací	-8.99347
th	-8.99504
▁čtyř	-8.99842
▁pochází	-8.99869
▁her	-8.9989
ti	-8.99952
ner	-8.99958
▁druhy	-8.99986
si	-9.00048
▁dostal	-9.00212
▁2000	-9.00278
let	-9.0029
vě	-9.0037
vi	-9.00377
át	-9.00471
tě	-9.00507
▁druh	-9.00564
▁každý	-9.01277
pro	-9.01394
▁avšak	-9.01431
▁navíc	-9.01593
ru	-9.01659
▁17.	-9.01693
▁českých	-9.0189
ovými	-9.01934
▁krále	-9.01986
val	-9.02147
be	-9.0228
▁leží	-9.02404
▁verze	-9.02717
ber	-9.02795
▁hrad	-9.02857
ální	-9.03115
di	-9.03141
▁františek	-9.03215
▁níž	-9.03238
▁funkce	-9.0325
▁zemi	-9.0344
ca	-9.03542
ši	-9.03828
ver	-9.03831
▁západní	-9.0413
▁menší	-9.04261
▁vesnice	-9.04307
bu	-9.0478
▁vrátil	-9.04895
▁organizace	-9.05041
sky	-9.0512
▁petr	-9.05178
▁rod	-9.05317
▁jednoho	-9.05338
▁jejím	-9.05462
▁(*	-9.0624
▁čr	-9.06406
▁karel	-9.06761
co	-9.06945
▁stanice	-9.07091
ovala	-9.07179
▁album	-9.07216
ot	-9.07532
▁nejvyšší	-9.07533
▁mezinárodní	-9.07799
▁new	-9.07824
▁2004	-9.07921
▁čas	-9.07995
▁přibližně	-9.08065
▁práci	-9.0815
ší	-9.08158
▁vždy	-9.08163
▁průběhu	-9.08166
lu	-9.08269
▁he	-9.08421
▁jednou	-9.08734
ický	-9.08749
▁panství	-9.08752
nit	-9.08808
▁16.	-9.08905
▁různé	-9.08928
▁30	-9.0897
▁hudební	-9.09049
▁100	-9.09068
▁bar	-9.09156
▁2017	-9.09567
ován	-9.09704
▁druhý	-9.09808
▁2005	-9.09979
▁hnutí	-9.10011
▁hlavně	-9.10031
per	-9.1006
lin	-9.10204
nější	-9.10212
▁otec	-9.10343
um	-9.10468
▁konce	-9.1047
▁pěti	-9.10495
▁práva	-9.10595
▁oba	-9.10841
nosti	-9.1094
▁velký	-9.11005
▁pan	-9.11005
▁15.	-9.11047
ke	-9.11085
▁obou	-9.11187
▁obsahuje	-9.11314
ro	-9.11395
▁jedna	-9.11419
▁oblast	-9.11848
▁neboť	-9.12027
▁děti	-9.12076
ství	-9.12151
▁dříve	-9.12156
▁sebe	-9.12229
▁získala	-9.12434
▁českého	-9.12596
▁per	-9.12788
5	-9.1282
ila	-9.13084
že	-9.13326
▁nebyl	-9.13331
▁4.	-9.13437
▁mohl	-9.13502
▁mil	-9.13668
▁zpět	-9.13818
ických	-9.13838
▁2002	-9.1393
▁dr	-9.1406
su	-9.14343
▁horní	-9.14371
▁ko	-9.14521
▁nicméně	-9.14731
▁0	-9.14769
▁světě	-9.1477
▁hra	-9.15194
fi	-9.15299
kové	-9.15339
▁rodiny	-9.15469
▁státu	-9.15902
▁východní	-9.16111
▁stát	-9.16386
▁nejprve	-9.16405
▁vznikla	-9.16794
▁kterém	-9.16811
pe	-9.17075
▁vyšší	-9.17095
ková	-9.17113
▁du	-9.17289
▁krátce	-9.1732
▁14.	-9.17374
▁pravděpodobně	-9.17844
▁vody	-9.18143
▁evropě	-9.18412
▁následující	-9.18437
▁nevy	-9.18455
▁nová	-9.18537
▁1945	-9.18744
▁převážně	-9.18823
▁václav	-9.18845
▁podařilo	-9.19038
či	-9.19139
ovo	-9.19392
▁svět	-9.19499
6	-9.19509
▁království	-9.19671
▁naopak	-9.19699
▁ty	-9.19712
▁mar	-9.19714
▁jedné	-9.19823
▁nového	-9.1985
▁zemí	-9.19974
▁směrem	-9.20064
▁řád	-9.20066
▁5.	-9.201
▁současné	-9.20105
▁nově	-9.2014
▁obě	-9.20274
den	-9.20305
▁mělo	-9.20572
▁malé	-9.20597
▁ma	-9.20704
▁dobře	-9.20724
▁w	-9.20944
▁prahy	-9.2095
▁okolo	-9.21029
▁vzhledem	-9.21214
ant	-9.21323
▁řada	-9.21353
▁martin	-9.21427
iny	-9.21558
▁1990	-9.21616
▁začátku	-9.21844
▁mo	-9.21858
dě	-9.21889
stav	-9.22167
▁armády	-9.22202
▁kam	-9.22228
▁13.	-9.22274
▁celý	-9.22324
ri	-9.22532
▁30.	-9.22553
▁autor	-9.22669
▁jménem	-9.22734
▁nejsou	-9.22749
ního	-9.22855
nic	-9.22987
▁obci	-9.23011
ut	-9.23041
▁současnosti	-9.23094
ovaný	-9.23175
▁be	-9.23356
▁ba	-9.23429
▁týmu	-9.23462
▁nejen	-9.23497
▁měly	-9.23608
▁pět	-9.23717
▁tým	-9.23834
▁německé	-9.23939
▁republice	-9.24092
▁kole	-9.24149
▁takže	-9.2415
▁díla	-9.24192
▁dalším	-9.24228
lá	-9.24289
▁•	-9.24305
▁dvěma	-9.24314
▁kterých	-9.24354
ovaná	-9.24394
vol	-9.24514
▁železniční	-9.24591
▁prostor	-9.24733
▁stojí	-9.24807
▁loď	-9.24818
▁iii	-9.24838
ss	-9.24871
nými	-9.24958
▁spíše	-9.24978
vat	-9.25093
8	-9.25136
▁služby	-9.2521
▁význam	-9.2526
▁příliš	-9.25277
ovaných	-9.25349
▁2003	-9.25395
▁poměrně	-9.25454
id	-9.25493
▁klubu	-9.25518
▁2018	-9.2566
ir	-9.25677
▁sociální	-9.25684
▁vede	-9.25719
▁věku	-9.25779
▁řeky	-9.2579
▁neu	-9.25871
▁6.	-9.25898
br	-9.26173
▁hry	-9.2618
▁projekt	-9.26424
sku	-9.26574
▁12.	-9.26615
▁nikdy	-9.26644
▁evropy	-9.26764
▁hodin	-9.26799
rod	-9.26804
▁rostlin	-9.26958
▁vliv	-9.27034
▁10.	-9.2708
▁mít	-9.27184
▁napsal	-9.27385
▁2001	-9.27433
ad	-9.27747
▁nyní	-9.27798
▁vzniku	-9.27798
▁řadu	-9.28029
▁dat	-9.28194
▁náměstí	-9.28196
▁park	-9.2842
ál	-9.28613
▁vývoj	-9.28658
ť	-9.29034
as	-9.29358
ační	-9.2937
▁nez	-9.29425
▁založil	-9.29543
▁vydal	-9.29558
▁částí	-9.29558
▁kterým	-9.29648
▁činnost	-9.29676
ú	-9.29741
▁and	-9.29821
▁bývá	-9.29839
ob	-9.30029
▁lidé	-9.30044
men	-9.30098
▁škola	-9.30228
▁koncem	-9.30261
▁svatého	-9.3028
▁tisíc	-9.30389
rad	-9.30487
bor	-9.30513
▁50	-9.30637
gen	-9.30645
▁obraz	-9.30723
▁ostatní	-9.30768
▁stavu	-9.30846
▁méně	-9.30856
▁přesto	-9.30904
▁kterého	-9.30918
▁člen	-9.30979
▁sice	-9.3111
land	-9.3111
▁11.	-9.3117
▁7.	-9.31251
ten	-9.3148
▁vysoké	-9.31746
▁jmenován	-9.31752
▁označení	-9.31767
▁univerzity	-9.31774
▁21.	-9.31784
bo	-9.31793
▁mistrovství	-9.32165
▁číslo	-9.32313
▁lodi	-9.32336
go	-9.32358
ul	-9.32473
osti	-9.32486
▁von	-9.32766
▁typ	-9.32824
▁cílem	-9.32852
▁budova	-9.3324
mar	-9.33279
▁cenu	-9.33482
▁univerzitě	-9.33607
▁studoval	-9.33665
▁brzy	-9.33724
▁post	-9.33738
▁vedení	-9.33871
▁8.	-9.34016
▁výboru	-9.34081
tí	-9.34128
ler	-9.34193
▁řady	-9.34207
sou	-9.34344
▁klub	-9.34394
▁zákon	-9.3444
▁prvních	-9.34521
▁česká	-9.34523
▁použití	-9.34791
▁listy	-9.34794
▁nastoupil	-9.34797
▁starší	-9.34812
▁národního	-9.35075
▁dlouhé	-9.35143
▁řízení	-9.3523
▁třídy	-9.35235
30	-9.3527
▁ni	-9.35383
▁dle	-9.35406
▁kulturní	-9.35483
hl	-9.35535
ovém	-9.35629
▁žije	-9.35679
▁činnosti	-9.35826
▁budovy	-9.36025
▁1998	-9.36035
▁9.	-9.36111
▁věnoval	-9.36129
▁měli	-9.36149
ovu	-9.36267
▁velkou	-9.3627
▁děl	-9.36273
▁spojených	-9.36328
ron	-9.36336
▁říše	-9.36379
▁vydání	-9.36394
▁provoz	-9.36518
▁uvádí	-9.36594
▁šest	-9.36687
▁prvního	-9.37079
▁1992	-9.37145
▁dalšími	-9.37214
▁států	-9.3722
▁celou	-9.37294
▁možnost	-9.37494
▁řádu	-9.37521
▁čímž	-9.37531
▁jednu	-9.37536
▁vznikl	-9.37605
▁pe	-9.37732
▁dílo	-9.38045
ického	-9.383
▁př	-9.38476
▁vedl	-9.38551
tem	-9.38834
▁program	-9.38872
▁nepo	-9.39023
▁slouží	-9.39083
▁dům	-9.3922
ovány	-9.39242
▁provozu	-9.3954
▁stalo	-9.39613
▁jednotlivých	-9.39616
cz	-9.39655
sti	-9.39691
▁vedle	-9.39769
ována	-9.3978
lou	-9.39973
▁domů	-9.40059
▁právo	-9.40255
▁místa	-9.40338
les	-9.40348
ster	-9.40361
ček	-9.40714
-19	-9.40757
▁podobně	-9.40781
▁model	-9.40971
▁velká	-9.40987
▁dnešní	-9.41023
▁ti	-9.41135
ční	-9.41254
▁utkání	-9.41297
▁žádné	-9.41321
▁údolí	-9.41371
▁škole	-9.41485
▁bo	-9.4167
ovací	-9.41756
▁jenž	-9.41935
▁40	-9.4206
▁členů	-9.4211
▁kol	-9.42208
▁cca	-9.42217
vin	-9.42323
še	-9.42344
▁zhruba	-9.42402
▁strana	-9.42581
ili	-9.42664
▁1989	-9.42745
bi	-9.42778
ár	-9.42812
hu	-9.42819
▁dochází	-9.42863
▁obcí	-9.42924
▁téhož	-9.43132
fa	-9.4314
sta	-9.43146
▁vše	-9.43222
▁nejlepší	-9.43237
▁nechal	-9.43251
ií	-9.43269
▁milionů	-9.43366
▁nejstarší	-9.43496
▁přístup	-9.43519
▁stavba	-9.43577
ři	-9.43597
▁hráč	-9.43598
▁vodní	-9.43734
▁hrál	-9.43884
mer	-9.43887
▁š	-9.44138
▁18	-9.44244
▁přírodní	-9.44296
mat	-9.44397
▁rozhodl	-9.44409
▁tri	-9.44472
ici	-9.44724
▁le	-9.44728
kách	-9.44761
▁vyskytuje	-9.4486
▁prostoru	-9.45001
▁1948	-9.45095
nici	-9.45123
▁knihy	-9.4513
▁informace	-9.4513
▁firmy	-9.45168
ct	-9.45282
▁císař	-9.45312
10	-9.45325
▁školu	-9.45391
▁nových	-9.45443
▁25	-9.45508
▁lednu	-9.45523
▁svými	-9.4556
▁nejčastěji	-9.45633
▁jednotky	-9.45753
▁dětí	-9.45756
ion	-9.45771
▁dodnes	-9.45981
hr	-9.46022
ger	-9.46253
▁moderní	-9.4627
sk	-9.46278
▁seriálu	-9.46304
▁osob	-9.46361
▁totiž	-9.46371
▁rychle	-9.46584
▁musel	-9.46692
▁spojení	-9.46718
▁počtu	-9.4675
▁barokní	-9.46914
▁znamená	-9.46963
▁kaple	-9.47044
▁syna	-9.47054
▁vojenské	-9.47073
▁motor	-9.47396
pu	-9.47642
▁x	-9.47754
▁soud	-9.47919
▁odešel	-9.47959
ovali	-9.47996
▁zámek	-9.48027
▁vytvořil	-9.48198
▁způsobem	-9.48246
▁nebyla	-9.48273
▁kilometrů	-9.48322
▁stav	-9.48406
▁1996	-9.48425
▁stranu	-9.48482
▁pole	-9.48524
9	-9.48598
inu	-9.48665
tý	-9.48907
án	-9.4898
sh	-9.49049
▁druhou	-9.49057
▁třeba	-9.4909
▁květnu	-9.49134
▁moc	-9.49154
▁dal	-9.4924
nem	-9.49359
▁1999	-9.49402
▁bratr	-9.497
▁francie	-9.50084
▁evropské	-9.50099
▁projektu	-9.50273
▁mor	-9.50286
▁vrchol	-9.5048
ismu	-9.50548
▁ja	-9.50556
zi	-9.50696
50	-9.50727
▁původu	-9.50787
▁(17	-9.5087
▁finále	-9.51018
▁zemích	-9.51024
–18	-9.511
80	-9.51316
▁prezident	-9.51323
ovice	-9.51376
▁lodí	-9.51381
sen	-9.51389
▁vláda	-9.51391
▁jejichž	-9.51489
▁prosinci	-9.51525
▁hranice	-9.51754
▁němž	-9.5176
len	-9.51797
▁poloviny	-9.51826
▁vztah	-9.51935
▁1991	-9.52011
0	-9.52092
▁silnice	-9.52186
▁série	-9.52207
▁způsob	-9.52638
nik	-9.52728
▁nimi	-9.52739
▁květy	-9.52908
pp	-9.52923
▁ním	-9.52927
ity	-9.53227
▁san	-9.53399
ven	-9.53534
▁výrazně	-9.53574
icky	-9.53727
ur	-9.538
▁karla	-9.53824
▁jednání	-9.5383
▁československé	-9.53843
▁sobě	-9.54021
▁nedo	-9.54084
▁vůbec	-9.54121
ff	-9.54121
▁městské	-9.54173
▁nejvíce	-9.54188
tra	-9.54278
mě	-9.54318
▁skupin	-9.54325
▁věž	-9.54389
ran	-9.54418
dr	-9.54451
▁pár	-9.54543
ště	-9.54608
▁brně	-9.54677
▁trať	-9.54692
pod	-9.54699
ck	-9.54882
▁1994	-9.54885
▁pobřeží	-9.54967
▁firma	-9.55097
▁zámku	-9.55154
wa	-9.55203
bou	-9.55309
▁al	-9.55373
ví	-9.55374
▁programu	-9.55399
▁28.	-9.55418
▁jaroslav	-9.55631
▁působí	-9.55785
▁dvoj	-9.55928
▁času	-9.55932
ent	-9.56061
▁nemá	-9.56139
ání	-9.56308
▁řešení	-9.56456
▁druhá	-9.5648
-1	-9.56487
▁podobě	-9.56649
▁vítězství	-9.5669
▁dopravní	-9.56745
▁červnu	-9.56776
ev	-9.56916
▁snaží	-9.5693
▁ženy	-9.57049
▁1997	-9.57092
▁neza	-9.57094
▁manželství	-9.57109
fr	-9.57113
▁současně	-9.57205
▁zákona	-9.57267
▁jelikož	-9.57379
▁me	-9.57502
▁historii	-9.57656
berg	-9.57657
▁používají	-9.57701
▁des	-9.57785
fer	-9.57878
ovanou	-9.58062
rot	-9.58177
▁1995	-9.58214
ana	-9.58262
▁místech	-9.58266
▁aktivní	-9.58269
▁car	-9.58293
▁přestože	-9.58297
▁novou	-9.58329
▁alba	-9.58379
▁ulici	-9.58406
▁josefa	-9.58469
▁soutěže	-9.58511
▁většinu	-9.58607
▁moře	-9.58607
▁stavby	-9.58625
▁proces	-9.58648
▁tímto	-9.58763
▁rozvoj	-9.58786
▁studia	-9.58882
▁žil	-9.58905
itu	-9.59206
ment	-9.59243
ismus	-9.59275
▁šesti	-9.5936
▁člověka	-9.59433
▁finanční	-9.59441
▁open	-9.59444
▁dolní	-9.59712
▁lety	-9.59725
▁zahrnuje	-9.59864
▁matka	-9.59932
▁návrh	-9.59938
ají	-9.60004
▁zřejmě	-9.60012
ena	-9.60043
▁jazyk	-9.60046
lit	-9.60142
▁parlamentu	-9.60189
▁stroj	-9.60204
ák	-9.60302
20	-9.60497
▁200	-9.60521
▁sil	-9.60568
▁kor	-9.60666
▁začíná	-9.60673
▁zda	-9.60679
▁existuje	-9.60748
▁ca	-9.60837
▁politické	-9.60853
▁americké	-9.60923
▁patřil	-9.60937
▁teprve	-9.60973
▁akce	-9.60984
▁1993	-9.61082
▁okrese	-9.61103
▁situace	-9.6132
▁umožňuje	-9.6141
▁zůstal	-9.61477
▁říjnu	-9.61637
▁teorie	-9.61714
zá	-9.61785
▁bi	-9.61823
pol	-9.61913
▁vůči	-9.62161
▁john	-9.6222
▁známý	-9.62256
▁1939	-9.62265
▁ostrov	-9.62286
40	-9.62323
▁iv	-9.62326
▁celá	-9.62603
▁centra	-9.62656
ita	-9.62665
té	-9.62741
▁francii	-9.62843
▁jednalo	-9.62865
▁německu	-9.62975
bra	-9.63039
▁22.	-9.63087
▁potom	-9.63132
▁hlavního	-9.63139
▁(16	-9.63233
▁bod	-9.63328
▁1968	-9.63339
▁jednotlivé	-9.63461
▁cesty	-9.63529
▁tehdejší	-9.63804
▁kraje	-9.63811
▁divadla	-9.63814
▁25.	-9.63852
▁společností	-9.63897
▁1),	-9.63918
nění	-9.64006
▁svoji	-9.64095
era	-9.64124
▁obdržel	-9.64338
▁někteří	-9.64389
▁objevil	-9.64585
▁prostřednictvím	-9.64607
▁důsledku	-9.64623
▁založena	-9.64657
▁24.	-9.64675
▁atd	-9.64723
▁david	-9.64813
▁výše	-9.64841
▁fa	-9.64843
▁led	-9.64857
▁jejího	-9.64881
▁důvodu	-9.64911
ží	-9.65001
▁klášter	-9.65087
▁podél	-9.65149
▁anti	-9.65173
▁podílel	-9.65221
há	-9.65276
▁zvláštní	-9.65343
ném	-9.65415
prav	-9.6542
▁plán	-9.65485
▁postavení	-9.65638
▁severu	-9.65647
▁obchodní	-9.65701
▁slova	-9.65803
▁vedením	-9.65874
ej	-9.6589
▁svému	-9.65894
(	-9.65928
kami	-9.65972
▁most	-9.65996
št	-9.66003
zí	-9.66007
▁oblastech	-9.66007
▁dosud	-9.66155
▁březnu	-9.66158
▁tvar	-9.6616
▁získat	-9.66197
▁dlouho	-9.66317
viz	-9.66375
▁31.	-9.66425
gu	-9.66522
▁všichni	-9.66557
▁jindřich	-9.66605
▁ben	-9.66693
▁dub	-9.66694
70	-9.66719
▁výkon	-9.66816
▁shromáždění	-9.66852
gi	-9.6689
▁(-	-9.66891
▁rozhodnutí	-9.66991
▁vyhrál	-9.67002
tin	-9.67072
▁mal	-9.67094
▁hradu	-9.67099
▁23.	-9.67128
▁troj	-9.67154
▁velice	-9.67186
▁nebylo	-9.67207
▁osobní	-9.673
▁otce	-9.67354
ruš	-9.6739
ala	-9.67449
▁škol	-9.67487
ers	-9.67545
▁oženil	-9.67603
▁populace	-9.677
dl	-9.67766
▁vstoupil	-9.67793
ren	-9.67808
mann	-9.67979
▁rostliny	-9.68032
▁pavel	-9.68096
▁styl	-9.6823
▁můžeme	-9.68232
▁předsedou	-9.68232
▁málo	-9.68303
▁částečně	-9.6833
▁síť	-9.68343
▁stran	-9.68394
álně	-9.68508
▁vnitřní	-9.68601
▁lodě	-9.68676
▁on	-9.68755
▁román	-9.68833
▁dá	-9.6886
▁sbor	-9.68881
▁jejíž	-9.69085
▁pre	-9.69143
ík	-9.69186
▁rodina	-9.69187
▁podporu	-9.6919
▁pozici	-9.69368
▁mnohem	-9.69569
▁členové	-9.69622
▁tj	-9.69769
▁roste	-9.6981
▁čele	-9.69846
▁speciální	-9.69866
▁bitvě	-9.69919
▁měst	-9.69924
▁kdo	-9.69926
ker	-9.69962
▁úřad	-9.69975
▁domu	-9.70017
sil	-9.70046
▁vedoucí	-9.70059
rá	-9.70172
▁stejné	-9.70269
ine	-9.70428
▁výšce	-9.70514
▁čech	-9.70552
▁(1	-9.70558
▁26.	-9.70651
▁polo	-9.70748
ak	-9.70769
▁con	-9.70773
▁založení	-9.70825
▁zájem	-9.70825
▁problémy	-9.70843
▁inter	-9.70904
▁27.	-9.70937
▁svazu	-9.70974
▁kraji	-9.70975
▁případně	-9.71139
▁minulosti	-9.71193
▁ostatních	-9.71231
ley	-9.71284
▁stroje	-9.71296
my	-9.71368
lan	-9.71403
▁dubnu	-9.7155
▁celém	-9.71595
pi	-9.71647
ard	-9.7168
▁celého	-9.7174
▁pomoc	-9.7179
don	-9.71833
▁jména	-9.71894
▁píseň	-9.7209
▁prací	-9.72127
▁obvod	-9.72143
▁bu	-9.7216
rt	-9.72248
▁minut	-9.72401
▁zpravidla	-9.72511
▁nes	-9.7253
▁těla	-9.72562
▁součást	-9.72585
▁nadále	-9.72633
ps	-9.72637
▁moci	-9.7267
▁for	-9.72733
▁druhého	-9.72806
▁takto	-9.72824
▁nádraží	-9.72889
▁kar	-9.72943
▁oddělení	-9.72957
var	-9.72992
▁staré	-9.73023
ik	-9.73078
▁jo	-9.73097
log	-9.73134
por	-9.73182
▁kultury	-9.73191
▁církve	-9.73212
min	-9.73335
rat	-9.7335
lar	-9.73372
▁rozšíření	-9.73386
▁městem	-9.7339
▁oproti	-9.73415
▁člověk	-9.73415
▁československa	-9.73434
▁červenci	-9.7352
▁srpnu	-9.73536
▁ex	-9.73579
7	-9.73637
90	-9.7369
▁únoru	-9.73715
▁29.	-9.73786
▁poblíž	-9.73794
▁podnik	-9.73795
str	-9.7383
▁sloužil	-9.73865
▁mladší	-9.73943
▁ulice	-9.73995
▁každé	-9.74045
▁postup	-9.74085
▁sta	-9.74103
▁1938	-9.74125
ovité	-9.7413
60	-9.7414
▁boj	-9.74186
▁1944	-9.74191
▁absolvoval	-9.74243
▁500	-9.7427
▁spolupráci	-9.7429
▁°	-9.74325
▁velkých	-9.74326
iště	-9.74342
▁kniha	-9.74417
▁parku	-9.74445
van	-9.74469
tek	-9.74505
▁go	-9.74532
▁souvislosti	-9.74536
▁rychlost	-9.74663
▁nižší	-9.74681
žen	-9.74681
kal	-9.74702
▁mužů	-9.74704
▁hned	-9.74715
ené	-9.74771
▁hvězd	-9.74859
▁jihu	-9.74966
▁soubor	-9.75112
▁obecně	-9.75125
▁představuje	-9.75156
▁druhém	-9.75164
▁energie	-9.75176
▁sezóně	-9.75226
▁půl	-9.75274
▁povstání	-9.75311
▁císaře	-9.75346
▁budou	-9.7536
▁pi	-9.7538
▁tvaru	-9.75397
▁práv	-9.75487
▁par	-9.75505
stat	-9.75531
ď	-9.75585
zu	-9.75709
tor	-9.75828
▁prvky	-9.75855
▁"„	-9.75871
▁60	-9.75941
▁zastával	-9.75959
▁politik	-9.76245
▁buď	-9.76308
▁ústí	-9.76348
nov	-9.76429
▁míst	-9.76445
▁trati	-9.76782
bě	-9.7687
▁jediný	-9.76943
▁působení	-9.76963
▁považován	-9.76973
▁pra	-9.77034
▁dar	-9.77064
▁františka	-9.77152
▁hlas	-9.77281
▁21	-9.7732
11	-9.77374
▁obchod	-9.77394
ang	-9.77488
ex	-9.77532
lat	-9.77583
▁robert	-9.77714
▁břehu	-9.77736
▁eu	-9.77748
▁seznam	-9.77769
▁oblastí	-9.77792
▁zadní	-9.77797
tá	-9.77832
▁dolarů	-9.77918
tel	-9.77928
▁začaly	-9.77992
▁kg	-9.78001
op	-9.782
▁chce	-9.78202
pon	-9.78211
▁(15	-9.78279
▁korun	-9.78296
25	-9.7831
▁apod	-9.78343
▁pražské	-9.78376
▁silně	-9.7839
▁muzeum	-9.78395
hrad	-9.78493
▁skončil	-9.78502
▁or	-9.78543
▁spisovatel	-9.78649
▁knih	-9.78708
45	-9.78722
▁výzkum	-9.78745
ární	-9.7882
▁měsíců	-9.78852
▁divadelní	-9.78885
▁blízkosti	-9.78996
▁60.	-9.79036
hy	-9.79052
▁dní	-9.79082
▁tra	-9.79091
net	-9.79129
rov	-9.79131
▁1942	-9.79213
sch	-9.79241
▁kraj	-9.79279
▁sedm	-9.79317
gr	-9.79386
▁členy	-9.79486
vod	-9.79524
▁řadě	-9.79602
▁paříži	-9.79664
kro	-9.79719
izace	-9.79786
ium	-9.79797
ki	-9.79822
▁90.	-9.79918
eč	-9.7992
▁80.	-9.7993
▁neo	-9.79932
ovaly	-9.8002
res	-9.80035
bit	-9.80128
skými	-9.80202
▁věd	-9.80216
▁začalo	-9.80284
▁ústavu	-9.80311
▁divadlo	-9.80364
▁kláštera	-9.80423
čka	-9.80434
▁les	-9.80443
▁1918	-9.80454
▁žádný	-9.80538
pan	-9.80697
pal	-9.80714
▁komise	-9.80725
eb	-9.80727
▁historie	-9.80796
▁charakter	-9.80799
▁osmi	-9.80834
▁panny	-9.80882
▁zvon	-9.80918
▁důvodů	-9.81011
ica	-9.81149
▁něco	-9.81165
ts	-9.81182
ista	-9.8124
ence	-9.81261
▁stavební	-9.81312
▁založen	-9.8136
▁osm	-9.81366
▁přišel	-9.8141
dal	-9.81446
▁známé	-9.81448
▁americký	-9.81494
▁op	-9.8154
bí	-9.81544
▁využití	-9.81602
▁brno	-9.81677
tou	-9.81739
▁1941	-9.81761
lík	-9.81763
▁výbor	-9.81831
▁existují	-9.8188
▁=	-9.81961
ič	-9.81979
bel	-9.82065
▁posledních	-9.82176
▁centrum	-9.82192
hal	-9.82243
▁kolo	-9.82271
▁24	-9.82401
kol	-9.82405
▁využívá	-9.82488
ké	-9.82496
▁bodů	-9.82614
▁druhu	-9.82645
nul	-9.8265
▁čechách	-9.82685
ros	-9.827
2.	-9.82727
▁přijat	-9.82751
▁lib	-9.82763
čky	-9.8277
jm	-9.82781
▁zahraničí	-9.82872
form	-9.82872
▁chování	-9.82932
▁jinak	-9.82985
▁kč	-9.83024
com	-9.83058
▁postaven	-9.83061
▁přitom	-9.83115
▁kola	-9.83126
▁vozy	-9.83131
▁odehrál	-9.83143
▁cestu	-9.8316
▁sto	-9.8318
▁významné	-9.83209
ika	-9.8321
▁autorem	-9.83288
dra	-9.83327
▁zdroj	-9.83362
▁"(	-9.83418
▁70.	-9.83482
▁literární	-9.83483
▁nedaleko	-9.8353
▁divadle	-9.83549
▁pomoci	-9.83593
q	-9.83626
poj	-9.83655
▁super	-9.83674
▁har	-9.83684
▁hlediska	-9.83757
▁přední	-9.8377
▁návratu	-9.83781
he	-9.83874
]	-9.83877
▁sídlo	-9.8391
▁pás	-9.83974
lon	-9.83976
▁dostala	-9.84022
plat	-9.84097
▁sedmi	-9.84168
▁změny	-9.84187
▁data	-9.84192
▁hudby	-9.84212
▁žen	-9.84227
cem	-9.84237
▁amerických	-9.84259
▁postavena	-9.84269
▁státy	-9.84284
▁počátkem	-9.84612
▁následujících	-9.84623
▁sama	-9.84806
▁soudu	-9.84837
▁vol	-9.84858
zo	-9.84902
▁dál	-9.84974
čin	-9.85023
▁převzal	-9.85113
▁tělo	-9.85122
bus	-9.85142
▁hory	-9.85143
▁prakticky	-9.85186
stup	-9.85227
▁kr	-9.85264
▁majetku	-9.85276
▁nacházejí	-9.85291
▁létě	-9.8531
▁žilo	-9.85312
věd	-9.85343
▁ruské	-9.85363
▁singl	-9.85387
▁akademie	-9.85459
▁třech	-9.85558
pis	-9.85573
▁vstup	-9.85667
▁značně	-9.85667
▁tomáš	-9.85719
▁střel	-9.85831
▁oficiálně	-9.85872
▁strom	-9.86048
▁jsem	-9.86152
▁závod	-9.86211
ung	-9.86268
cha	-9.86274
92	-9.86313
▁1940	-9.86318
gon	-9.86319
▁cesta	-9.86346
din	-9.86361
un	-9.86439
zem	-9.86496
▁spodní	-9.86621
▁hranici	-9.8678
▁síly	-9.86797
▁výrobu	-9.86838
▁ředitel	-9.87003
▁pal	-9.87009
▁trest	-9.87029
ění	-9.87109
▁václava	-9.87111
▁malý	-9.87176
▁""	-9.8718
▁dcera	-9.87211
▁sdružení	-9.8723
▁letoun	-9.87269
▁pr	-9.87272
▁písně	-9.87284
ář	-9.87291
rie	-9.87332
▁1946	-9.87348
we	-9.87381
ll	-9.87414
klad	-9.87418
ö	-9.87437
▁podíl	-9.87467
▁min	-9.87524
▁pracovní	-9.87572
tal	-9.87611
drž	-9.87711
ation	-9.87744
▁domácí	-9.87782
byt	-9.87783
▁svaz	-9.87986
▁sportovní	-9.88052
▁stylu	-9.88057
16	-9.88104
12	-9.88238
lad	-9.88251
tes	-9.88411
▁mohla	-9.88416
▁zápas	-9.88463
▁bílé	-9.88499
▁vzniklo	-9.88504
▁nás	-9.88575
▁termín	-9.88614
▁francouzské	-9.88637
▁vzdělání	-9.8866
dob	-9.88721
nd	-9.8883
▁sebou	-9.88858
▁chtěl	-9.88868
▁vychází	-9.88899
▁bývalý	-9.88988
!	-9.88991
▁profesor	-9.89035
▁nutné	-9.89087
nie	-9.89106
▁ligy	-9.89111
skému	-9.89139
mal	-9.8921
▁studium	-9.89265
▁rodině	-9.89322
▁mas	-9.89353
▁antonín	-9.89361
▁armáda	-9.89393
▁tradiční	-9.89423
▁oficiální	-9.8949
▁prezidenta	-9.89501
▁1988	-9.89523
ín	-9.89558
▁1960	-9.89592
rin	-9.89608
so	-9.89617
jší	-9.89659
▁sněmovny	-9.89719
▁lesní	-9.8975
han	-9.89782
rem	-9.89811
▁příběh	-9.89858
▁nor	-9.89938
▁služeb	-9.89938
▁1950	-9.89972
▁poli	-9.89974
68	-9.90108
ser	-9.90154
ali	-9.90248
▁ústav	-9.90271
▁výkonu	-9.90289
ü	-9.90456
▁hlavních	-9.90481
00	-9.90497
bar	-9.9057
▁paul	-9.90592
▁alexandr	-9.90619
▁ryb	-9.90654
▁kom	-9.90781
▁vznik	-9.90789
▁rad	-9.90805
▁muzea	-9.90812
▁náboženství	-9.90829
▁vídni	-9.9083
ký	-9.90855
▁malá	-9.90892
par	-9.90947
▁úřadu	-9.90957
▁písní	-9.90957
ale	-9.90972
▁česku	-9.90976
bal	-9.90995
rou	-9.91017
▁ga	-9.91027
▁novo	-9.91077
▁zpočátku	-9.91256
18	-9.91268
▁mandát	-9.9133
▁kříž	-9.91342
▁vrcholu	-9.91346
▁hlasů	-9.91524
▁věže	-9.91528
▁peter	-9.91552
ováno	-9.91633
▁posledním	-9.91649
▁22	-9.9167
nes	-9.91702
▁liší	-9.91741
▁znám	-9.91755
div	-9.91762
▁pohyb	-9.91768
jev	-9.9177
▁skladatel	-9.91775
▁verzi	-9.91785
▁skutečnosti	-9.91786
▁dosáhl	-9.91794
▁vladimír	-9.91811
▁mat	-9.91825
▁dispozici	-9.91848
ač	-9.91849
▁velikosti	-9.91894
▁fotografie	-9.91895
▁ačkoliv	-9.91916
▁uvnitř	-9.91931
lý	-9.91945
ař	-9.92055
▁role	-9.9212
▁stol	-9.92178
▁slov	-9.92187
▁kód	-9.92214
▁chrám	-9.92232
▁probíhá	-9.92257
▁1949	-9.92326
nutí	-9.9242
lem	-9.92439
▁potok	-9.92478
iv	-9.92512
▁my	-9.92548
gar	-9.92567
▁trans	-9.92634
▁operace	-9.92682
▁1969	-9.92718
75	-9.92741
▁1980	-9.92743
krát	-9.92784
ble	-9.92811
▁skupině	-9.92831
ben	-9.92848
▁údajně	-9.92857
▁dítě	-9.92862
▁hol	-9.92874
▁jednotek	-9.92879
▁ročníku	-9.92911
star	-9.92939
▁trenér	-9.92954
▁povrch	-9.92975
▁sítě	-9.93031
▁válka	-9.93079
▁auto	-9.93112
mysl	-9.93147
▁problém	-9.93152
ok	-9.93326
před	-9.93331
▁okraji	-9.93333
▁šlo	-9.934
66	-9.93473
17	-9.93536
šek	-9.93625
▁sezóny	-9.93629
▁lepší	-9.93651
▁odsouzen	-9.93692
▁deseti	-9.93715
ris	-9.93793
▁jednom	-9.93807
▁80	-9.93919
▁stanici	-9.93937
▁1970	-9.93949
ac	-9.93965
▁nazývá	-9.93975
▁dráhy	-9.93983
▁poly	-9.93995
▁velitel	-9.94019
mon	-9.9403
▁informací	-9.9405
▁„"	-9.94098
izaci	-9.94134
▁vytvoření	-9.94135
24	-9.94174
má	-9.94248
▁přelomu	-9.94272
▁dopravy	-9.94429
hel	-9.94449
gan	-9.94475
▁stavbu	-9.9451
istů	-9.94516
▁podobné	-9.9455
▁fe	-9.94579
▁národním	-9.94688
▁malíř	-9.94719
▁nese	-9.94724
35	-9.94753
▁bal	-9.94772
▁nic	-9.94818
▁zatím	-9.94819
▁učitel	-9.94862
nil	-9.94872
▁začali	-9.94905
▁spojené	-9.94927
76	-9.94949
▁posléze	-9.94952
▁situaci	-9.94952
▁veřejnosti	-9.94955
ému	-9.95068
▁uvedl	-9.95088
▁zdejší	-9.95147
▁výroby	-9.95155
▁pozdější	-9.95179
▁delší	-9.95195
mil	-9.95267
▁takové	-9.9534
▁skupinu	-9.95377
▁léta	-9.95391
88	-9.95438
hlíd	-9.95482
▁1943	-9.95508
▁pravidelně	-9.95555
▁boje	-9.95617
▁německa	-9.95633
ruč	-9.95736
hled	-9.95753
▁roman	-9.95759
mír	-9.95798
15	-9.95798
kar	-9.95833
ologie	-9.95872
▁podmínky	-9.95908
▁největším	-9.96005
▁roze	-9.96014
▁kategorie	-9.96015
▁případech	-9.96045
▁podzim	-9.96054
měř	-9.96057
▁předtím	-9.96059
bla	-9.96069
▁1920	-9.96102
▁stál	-9.96157
98	-9.96195
▁rukou	-9.96343
▁nepro	-9.96439
▁říšské	-9.96472
▁rudolf	-9.96497
▁pl	-9.965
▁no	-9.96528
dar	-9.96531
dá	-9.96532
sp	-9.96543
ng	-9.96565
▁novým	-9.96578
▁cen	-9.96591
▁deset	-9.96639
▁měsíce	-9.96757
kovou	-9.96773
▁znak	-9.9678
▁označuje	-9.96788
ist	-9.96812
dí	-9.96813
stří	-9.96844
▁čeledi	-9.96889
95	-9.96899
kin	-9.96933
▁areál	-9.96981
▁knize	-9.96982
▁sub	-9.97024
slav	-9.97067
▁pokračoval	-9.97106
-2	-9.97132
dle	-9.97183
▁objevuje	-9.97186
ovský	-9.97226
čen	-9.97241
zer	-9.97268
▁historické	-9.97341
▁regionu	-9.97472
▁man	-9.97481
▁biskup	-9.97503
ilo	-9.97516
▁úspěch	-9.9752
ph	-9.97532
ovské	-9.97583
nout	-9.97599
stein	-9.97722
▁politiky	-9.97732
97	-9.97817
▁směru	-9.97824
▁symbol	-9.97852
vaz	-9.9788
ian	-9.97899
▁židovské	-9.97912
ski	-9.98038
ička	-9.98042
▁konstrukce	-9.98045
ling	-9.98081
vis	-9.9816
▁rada	-9.9819
▁sb	-9.98333
▁ukončení	-9.98428
▁britské	-9.98443
▁zúčastnil	-9.98472
▁smlouvu	-9.98482
▁platí	-9.9854
▁studiu	-9.98547
▁sloup	-9.98553
ón	-9.9859
▁pilot	-9.98625
stal	-9.98663
▁úrovni	-9.98702
cím	-9.98749
con	-9.98753
ham	-9.98771
▁rakousko	-9.98784
ovalo	-9.98806
34	-9.98817
tře	-9.98819
39	-9.98828
▁štít	-9.98842
▁hraje	-9.98884
▁německého	-9.98942
stra	-9.98957
▁procesu	-9.98969
▁bor	-9.99009
del	-9.99023
▁nebyly	-9.99082
▁petra	-9.99085
▁sever	-9.99155
▁vězení	-9.99188
▁zahraniční	-9.9921
▁noci	-9.99228
▁opustil	-9.99244
lov	-9.99265
▁samo	-9.99308
96	-9.9932
aj	-9.99419
nické	-9.99453
▁slovenské	-9.99457
her	-9.99465
▁výroba	-9.99517
jan	-9.99523
▁poslanec	-9.99553
▁státech	-9.99558
▁bývají	-9.99675
▁vytváří	-9.99717
▁možno	-9.99722
▁právní	-9.99746
▁lu	-9.9991
▁miroslav	-9.99918
▁přístav	-9.99921
▁nahradil	-9.99931
▁použít	-9.99962
byl	-9.99974
uz	-10.0003
27	-10.0004
▁pohled	-10.0007
▁námořní	-10.0013
▁lip	-10.0019
▁&	-10.0029
ius	-10.0031
▁kusů	-10.0033
▁soutěži	-10.0035
▁letiště	-10.0036
.“	-10.0049
▁skládá	-10.0053
99	-10.0055
82	-10.0056
▁zpracování	-10.0064
▁centrální	-10.0065
ité	-10.0067
▁pohoří	-10.0068
ož	-10.0069
▁1919	-10.0074
▁richard	-10.0078
ovaného	-10.008
▁areálu	-10.0084
▁fakultě	-10.0087
▁voda	-10.0088
čit	-10.0089
▁kostele	-10.009
▁plně	-10.009
tan	-10.0092
▁odkaz	-10.0094
▁dlouhá	-10.0094
▁majetek	-10.01
▁povrchu	-10.0107
▁hru	-10.0108
▁kal	-10.0112
▁veřejné	-10.0113
67	-10.0114
▁itálie	-10.0119
vo	-10.012
▁300	-10.0121
▁životní	-10.0121
▁okruhu	-10.0137
▁milan	-10.0143
nej	-10.0144
▁zmínka	-10.0146
▁králové	-10.0147
▁králem	-10.0147
pr	-10.0149
▁cestě	-10.0156
▁snažil	-10.0157
zen	-10.0157
ix	-10.0161
▁mac	-10.0163
▁kterému	-10.0164
▁jich	-10.0169
▁účastnil	-10.0174
kr	-10.0175
▁karl	-10.0179
rak	-10.018
86	-10.018
▁americe	-10.0183
44	-10.0187
▁vozů	-10.0187
▁přijal	-10.0188
uš	-10.0195
▁nena	-10.0204
▁vystudoval	-10.0206
▁smrt	-10.0219
▁1967	-10.0231
▁(3	-10.0232
nos	-10.0236
▁pracovat	-10.0246
▁st	-10.0249
▁muž	-10.0249
▁hodnoty	-10.0251
▁yorku	-10.0254
93	-10.0254
▁profesionální	-10.0272
kaz	-10.028
▁televizní	-10.028
▁vzniká	-10.029
ané	-10.0294
▁německý	-10.0298
▁ivan	-10.03
ral	-10.0303
zy	-10.0308
eš	-10.031
▁široké	-10.0327
▁michal	-10.0329
fe	-10.033
▁23	-10.0334
▁jazyka	-10.0341
▁vrch	-10.0341
▁dvakrát	-10.0348
▁přechod	-10.0349
▁rostoucí	-10.0352
des	-10.0354
▁35	-10.0363
▁(14	-10.0368
▁vysokou	-10.037
▁slovo	-10.0371
ret	-10.0376
žit	-10.0382
26	-10.0385
bud	-10.0387
▁mír	-10.0393
▁oboru	-10.0396
73	-10.0402
mín	-10.0403
▁papež	-10.0405
▁zvířat	-10.0405
▁česko	-10.0405
liv	-10.0406
▁mezitím	-10.0412
ez	-10.0414
end	-10.0417
▁navrhl	-10.0418
▁vztahy	-10.0419
▁vhodné	-10.042
▁studií	-10.0425
kova	-10.0425
duk	-10.0426
▁lidské	-10.0427
pře	-10.043
▁obsah	-10.0442
▁osoby	-10.0442
▁vyskytují	-10.0443
▁několikrát	-10.0444
▁smlouvy	-10.0444
kl	-10.0456
▁vlivem	-10.0462
61	-10.0463
▁ministr	-10.0467
▁slovensku	-10.047
▁val	-10.047
ovic	-10.0472
▁1964	-10.0477
▁jaře	-10.0481
vid	-10.0481
▁1947	-10.0482
▁zvláště	-10.0482
pt	-10.0493
▁1976	-10.0496
▁českou	-10.0499
▁půdy	-10.0502
▁strávil	-10.0505
cu	-10.0516
▁trůn	-10.0519
▁správy	-10.0519
▁nelze	-10.052
▁čase	-10.0522
har	-10.0524
▁mj	-10.0531
▁výsledky	-10.0542
▁říká	-10.0545
▁německých	-10.0546
ováním	-10.0549
roz	-10.055
ovce	-10.0552
▁list	-10.0556
74	-10.0562
kor	-10.0565
tur	-10.0565
▁tábor	-10.0568
▁nemůže	-10.0572
37	-10.0574
64	-10.0577
▁cor	-10.0587
▁svaté	-10.0596
pří	-10.0599
▁hrabě	-10.0601
sí	-10.0608
▁lev	-10.0609
▁resp	-10.0611
port	-10.0613
▁objekt	-10.0618
▁předseda	-10.0619
tů	-10.0619
89	-10.062
▁prochází	-10.0621
▁královské	-10.0621
49	-10.0623
che	-10.0626
▁1987	-10.0636
vají	-10.0636
▁gen	-10.0638
▁van	-10.0638
▁organizací	-10.0639
▁černé	-10.0644
▁čísla	-10.0646
33	-10.0652
▁populární	-10.0653
ňuje	-10.0654
▁mlýn	-10.066
zna	-10.0662
▁ocenění	-10.0662
▁skončení	-10.0663
dnes	-10.0663
lek	-10.0672
▁velkým	-10.0683
▁1972	-10.0685
ab	-10.0686
▁zbytek	-10.0692
▁maximální	-10.0694
čně	-10.0697
▁text	-10.0697
▁tour	-10.0697
▁napětí	-10.0701
▁zdroje	-10.0702
tzv	-10.0705
▁ceny	-10.0712
▁fotograf	-10.0729
ráž	-10.0732
▁1958	-10.0735
▁zemědělství	-10.0737
zor	-10.0754
▁itálii	-10.0758
▁lidu	-10.0762
▁onemocnění	-10.0763
36	-10.0764
▁původního	-10.077
▁sboru	-10.0771
28	-10.0771
rit	-10.0773
uk	-10.0775
die	-10.078
▁obyvatelé	-10.0781
▁mohli	-10.0785
▁funkcí	-10.0787
▁prohlásil	-10.0787
▁palác	-10.079
▁rock	-10.079
pat	-10.0796
▁vůz	-10.0802
▁1986	-10.0805
▁fc	-10.0808
▁standard	-10.0812
32	-10.0821
62	-10.0829
14	-10.0831
▁seriál	-10.0832
cen	-10.0834
▁motory	-10.0837
hra	-10.0841
▁události	-10.0846
▁pořadí	-10.0854
▁pedagog	-10.0856
▁linky	-10.0862
ily	-10.0869
▁systémy	-10.0881
stře	-10.0881
▁euro	-10.0883
▁pozice	-10.0883
38	-10.0889
▁důležité	-10.0891
lie	-10.0899
ější	-10.0908
▁1930	-10.0912
▁architekt	-10.0913
ns	-10.092
▁pol	-10.0921
13	-10.0923
▁popis	-10.093
▁mírně	-10.093
▁velkého	-10.0938
fl	-10.0946
▁rekord	-10.0946
▁odmítl	-10.095
cel	-10.0954
▁průmyslu	-10.096
hn	-10.0965
83	-10.0967
▁150	-10.0971
▁každá	-10.0972
▁dobré	-10.0976
▁podepsal	-10.0976
▁bre	-10.0976
▁unie	-10.0982
▁prodej	-10.0983
mluv	-10.0985
▁rodiče	-10.0988
▁1985	-10.099
ící	-10.0991
▁fakt	-10.0992
31	-10.0992
py	-10.0996
sek	-10.0999
isté	-10.1001
dat	-10.1003
▁výraz	-10.101
▁ves	-10.1011
22	-10.1014
▁2019	-10.1015
▁ostrově	-10.1017
sl	-10.1019
▁vz	-10.1021
▁zprávy	-10.103
zní	-10.1032
for	-10.1032
▁vilém	-10.1045
▁med	-10.1046
ecké	-10.1047
▁os	-10.1048
▁domě	-10.1062
▁žebříčku	-10.1065
▁úspěšně	-10.1072
▁bud	-10.1073
▁českém	-10.1077
▁barvy	-10.1077
▁vojska	-10.1078
78	-10.1078
84	-10.108
▁novém	-10.1081
▁vojáků	-10.1081
▁žena	-10.1092
dor	-10.1098
▁pu	-10.1099
▁kan	-10.1099
▁[	-10.1105
čet	-10.1108
átor	-10.111
▁boji	-10.1111
63	-10.1113
iss	-10.112
nc	-10.112
nové	-10.1122
▁výjimkou	-10.1128
▁lan	-10.1134
▁památka	-10.1143
▁vysoká	-10.1144
šť	-10.1144
▁ostrova	-10.1144
▁ras	-10.1149
ickým	-10.1151
dol	-10.1152
est	-10.116
▁1974	-10.1168
▁stop	-10.1169
rd	-10.117
ži	-10.1172
hlav	-10.1172
▁sněmu	-10.1172
85	-10.1175
▁1984	-10.1175
▁skončila	-10.1181
ide	-10.1183
▁adam	-10.1183
▁objevila	-10.1186
▁(2	-10.1188
lig	-10.119
▁lit	-10.1197
▁jediným	-10.1198
mel	-10.1201
▁schopnost	-10.1205
▁kariéru	-10.1205
▁rud	-10.1206
▁zemřela	-10.1215
▁němu	-10.1219
▁sam	-10.1224
▁církevní	-10.1234
▁drah	-10.1234
▁typy	-10.1236
dmořské	-10.1241
▁uprostřed	-10.1247
ft	-10.1251
▁koupil	-10.1253
▁cena	-10.1254
pen	-10.1256
šel	-10.1259
▁rozsáhlé	-10.1268
▁(4	-10.1278
koli	-10.1278
▁tomuto	-10.128
▁dob	-10.1287
▁1978	-10.1287
2,	-10.1288
▁velko	-10.1289
▁používat	-10.1293
▁1982	-10.1299
▁sídlem	-10.1299
▁plyn	-10.1301
06	-10.1302
▁alespoň	-10.1303
▁útoku	-10.1303
▁křídla	-10.1304
▁(13	-10.1307
met	-10.1307
▁známá	-10.1318
▁gal	-10.1319
▁přenos	-10.1325
▁lidové	-10.1329
▁účelem	-10.1332
cký	-10.1333
69	-10.1334
čil	-10.1335
▁volby	-10.1339
fon	-10.1345
tha	-10.1345
kových	-10.1346
ken	-10.135
▁ge	-10.1351
▁trh	-10.1353
nova	-10.1354
asi	-10.1355
▁navštívil	-10.1357
▁york	-10.1358
lis	-10.1359
29	-10.1362
43	-10.1362
vor	-10.1365
65	-10.1369
+	-10.1369
▁1981	-10.1371
iz	-10.1372
71	-10.1374
▁vládě	-10.1377
▁režisér	-10.1388
▁římské	-10.139
▁provedení	-10.1398
▁ludvík	-10.1404
▁potřeba	-10.1406
▁dosavadní	-10.1413
94	-10.1419
lid	-10.142
▁1975	-10.1421
▁paměti	-10.1429
vedl	-10.1432
▁cit	-10.1433
▁ameriky	-10.1434
klá	-10.1435
77	-10.1436
▁výsledkem	-10.1436
▁najít	-10.1442
▁br	-10.1443
voj	-10.1445
▁cíle	-10.1446
79	-10.1446
kovi	-10.1452
áč	-10.1453
▁vítěz	-10.1454
▁délce	-10.1457
55	-10.1458
▁formě	-10.1464
▁budoucí	-10.1466
▁pocházel	-10.1466
sel	-10.1468
▁han	-10.1469
▁vedla	-10.147
bro	-10.147
▁londýně	-10.1473
21	-10.1474
▁1956	-10.1476
▁výšky	-10.1483
▁festivalu	-10.1485
▁hus	-10.1485
▁1953	-10.1491
▁občas	-10.1492
▁far	-10.1497
cher	-10.1502
▁trhu	-10.1503
▁mod	-10.1506
▁kop	-10.1506
▁zase	-10.1507
▁soutěž	-10.151
▁št	-10.1519
46	-10.1522
▁body	-10.1522
▁pohřben	-10.1524
▁muži	-10.1524
▁roční	-10.153
▁1971	-10.153
▁východě	-10.1532
▁hře	-10.1534
▁nabízí	-10.1534
áz	-10.1537
▁70	-10.1538
▁časopisu	-10.1551
▁zdravotní	-10.1551
ele	-10.1551
tion	-10.1551
▁1973	-10.1556
ření	-10.1564
▁ro	-10.1567
nese	-10.1572
▁občanské	-10.1573
▁sérii	-10.1573
▁1937	-10.1574
slov	-10.1576
▁grand	-10.1577
▁seznamu	-10.158
▁sssr	-10.1581
centr	-10.1582
▁druhým	-10.1583
▁ředitelem	-10.1584
▁moravě	-10.1592
▁stejný	-10.1595
▁50.	-10.1596
istické	-10.1596
▁anglie	-10.1597
ves	-10.1598
▁výběr	-10.16
▁vládní	-10.1611
▁určité	-10.1615
81	-10.1616
gh	-10.1622
▁odpor	-10.1623
nor	-10.1626
▁ačkoli	-10.1627
▁evropských	-10.1629
▁obor	-10.1632
▁dis	-10.1634
▁celkově	-10.1636
▁generál	-10.164
▁chvíli	-10.1641
rek	-10.1642
▁zahájil	-10.1645
xi	-10.165
▁jiného	-10.1651
eň	-10.1653
▁představení	-10.1659
▁proběhla	-10.1662
▁filip	-10.1665
59	-10.1667
▁obyvatelstva	-10.1668
▁smyslu	-10.1669
que	-10.1673
▁hodnot	-10.1673
▁vlastnosti	-10.1674
▁případ	-10.1674
▁ochranu	-10.1677
san	-10.168
nictví	-10.168
leh	-10.1685
oni	-10.1686
▁směr	-10.1688
▁rozšířen	-10.169
oz	-10.1695
til	-10.1698
▁vydala	-10.1699
například	-10.17
▁staro	-10.1701
▁tun	-10.1706
fo	-10.1709
▁spolupracoval	-10.1709
▁ru	-10.171
▁postavy	-10.1713
▁politických	-10.1715
▁samice	-10.1719
▁severně	-10.1719
▁věci	-10.172
▁los	-10.172
47	-10.1721
▁bur	-10.173
▁manželkou	-10.1732
▁cíl	-10.1736
▁ksč	-10.174
▁růst	-10.1745
▁1936	-10.1745
▁režimu	-10.1746
▁osídlení	-10.1747
▁1979	-10.1748
▁silné	-10.1748
▁michael	-10.1753
jící	-10.1753
gener	-10.1755
▁budov	-10.1756
▁obvodu	-10.1757
▁jinými	-10.1759
▁studie	-10.1764
▁mladé	-10.1764
▁snad	-10.1766
▁výrobě	-10.1766
▁rostlina	-10.1768
▁policie	-10.1771
▁třetím	-10.1772
▁1921	-10.1777
▁zdeněk	-10.1781
isty	-10.1781
▁technologie	-10.1784
▁pas	-10.1788
▁dcery	-10.1788
dan	-10.1789
▁kub	-10.1791
▁fo	-10.1792
▁1977	-10.1792
▁technické	-10.1793
▁komplex	-10.1794
▁1965	-10.1796
▁vyšla	-10.1797
▁19	-10.1797
▁východ	-10.1801
gy	-10.1809
rich	-10.1809
▁rozdělení	-10.1814
▁1932	-10.1814
věř	-10.1815
▁povýšen	-10.1819
▁publikoval	-10.1819
▁bratra	-10.1821
▁linie	-10.1822
▁plat	-10.1823
▁odkud	-10.1824
vrh	-10.1828
▁1935	-10.1831
▁materiál	-10.1838
▁nakladatelství	-10.184
▁sport	-10.1841
▁1983	-10.1843
▁pri	-10.1846
▁výzkumu	-10.1847
▁provincie	-10.1848
▁odhad	-10.1849
fu	-10.1853
▁dějin	-10.1853
▁já	-10.1855
▁aktiv	-10.1866
▁1929	-10.1873
▁oltář	-10.1873
▁západním	-10.1875
▁2),	-10.1877
▁zrušení	-10.1884
tické	-10.1885
▁samostatné	-10.1897
▁dnech	-10.1899
olog	-10.1904
–17	-10.1905
▁dynastie	-10.1909
▁stává	-10.1912
▁gi	-10.1914
▁útok	-10.1915
)"	-10.1916
těž	-10.1919
onu	-10.1919
tj	-10.1921
▁turné	-10.1928
rc	-10.1932
’	-10.1932
▁dnů	-10.1933
▁32	-10.1933
▁pomohl	-10.1935
▁dělí	-10.1935
▁(20	-10.1936
▁opera	-10.1936
▁da	-10.1936
▁vzduchu	-10.1939
vrat	-10.1943
▁gar	-10.1944
▁akademii	-10.1946
▁zdrojů	-10.1946
boj	-10.1956
▁postav	-10.1957
▁staly	-10.1958
▁generace	-10.1958
▁bio	-10.196
▁vývoje	-10.1965
▁kategorii	-10.1966
05	-10.1967
▁sp	-10.1968
▁délka	-10.197
už	-10.197
▁psal	-10.197
▁400	-10.1971
▁ferdinand	-10.1974
ó	-10.1975
čas	-10.1975
▁university	-10.1976
ple	-10.1979
eri	-10.1979
▁francouzský	-10.198
▁nejdříve	-10.1983
▁dny	-10.1987
iku	-10.1987
▁vsi	-10.199
07	-10.1995
voz	-10.1996
▁ministerstva	-10.2001
▁festival	-10.2001
▁pojem	-10.2002
▁správní	-10.2003
-18	-10.2009
off	-10.2012
▁skal	-10.2013
91	-10.2016
87	-10.2018
dů	-10.2019
▁1951	-10.2019
▁účast	-10.202
▁del	-10.2022
▁velikost	-10.2023
▁obsahují	-10.2025
▁1966	-10.2027
▁(„	-10.2036
▁tentokrát	-10.2039
ovec	-10.2044
tro	-10.2044
▁slunce	-10.2045
▁nám	-10.2048
▁nepře	-10.2049
▁ochrany	-10.2053
▁lid	-10.2055
▁rokem	-10.206
▁místních	-10.2068
▁hrát	-10.2068
▁jednak	-10.2069
▁odtud	-10.2071
ecký	-10.2072
▁činí	-10.2079
▁kap	-10.208
▁dětství	-10.2083
▁pracuje	-10.2087
▁názvu	-10.2094
tic	-10.2101
▁přesně	-10.2103
▁komunikace	-10.2103
ovitých	-10.2104
▁1963	-10.2107
▁nejvýznamnější	-10.2107
chu	-10.2108
▁pop	-10.2117
▁metod	-10.2117
42	-10.212
nat	-10.2133
rovná	-10.2135
▁gymnázium	-10.2135
▁el	-10.2138
one	-10.214
▁jejích	-10.2146
▁chod	-10.2146
ština	-10.2147
▁doprava	-10.2147
▁větve	-10.2148
▁zůstala	-10.215
▁díle	-10.2152
▁1961	-10.2159
▁plod	-10.2165
▁dosahuje	-10.2165
▁existence	-10.2171
tka	-10.2174
▁složení	-10.2179
▁vytvořit	-10.2182
▁časopis	-10.2183
pra	-10.2184
kat	-10.2184
▁dlouhý	-10.2185
▁proud	-10.2185
▁názor	-10.2189
▁zatčen	-10.219
▁předchozí	-10.2192
kle	-10.2192
▁neměl	-10.2195
letý	-10.2195
ela	-10.2196
list	-10.2196
kan	-10.2197
▁manžel	-10.22
oš	-10.2202
▁celkové	-10.2204
▁synem	-10.2207
▁chrámu	-10.2209
▁mc	-10.2211
▁para	-10.2212
ari	-10.2213
vel	-10.2214
▁zvítězil	-10.2215
icích	-10.2215
▁narodila	-10.2219
if	-10.2223
▁významným	-10.2224
-3	-10.2225
▁ministra	-10.2227
▁centrem	-10.2229
▁buňky	-10.2231
tivní	-10.2231
car	-10.2234
▁oznámil	-10.2234
▁rodin	-10.2235
▁stejném	-10.2239
▁listů	-10.2241
vádí	-10.2245
▁základních	-10.2246
▁vidět	-10.225
▁nejznámější	-10.2255
▁gra	-10.2263
▁rychlosti	-10.2263
▁jižně	-10.2263
▁metody	-10.2265
nek	-10.2265
pad	-10.2268
▁opery	-10.2268
▁vzdálenosti	-10.227
▁spor	-10.2271
▁we	-10.2272
▁konkrétní	-10.2273
▁zelené	-10.2276
▁duchovní	-10.2278
▁začátkem	-10.228
set	-10.228
kám	-10.2281
▁látky	-10.2284
▁jiný	-10.2288
▁životě	-10.2289
▁čísel	-10.2291
▁průměru	-10.2294
ani	-10.2294
▁vesnici	-10.2295
▁sk	-10.2296
▁prů	-10.2297
lev	-10.2302
níků	-10.2303
▁snadno	-10.2304
▁pozornost	-10.231
41	-10.2311
▁jiřího	-10.2323
▁vybavení	-10.2325
ností	-10.2326
tri	-10.2326
▁původ	-10.2329
▁pražského	-10.233
práv	-10.2333
▁skutečně	-10.2334
▁anna	-10.2338
▁star	-10.2342
mont	-10.2344
tt	-10.2348
icí	-10.2349
▁1952	-10.2354
▁george	-10.2356
▁malých	-10.236
pustil	-10.2361
▁severním	-10.2364
▁německo	-10.2364
av	-10.2364
▁hraběte	-10.2369
▁možnosti	-10.2371
nič	-10.2374
▁pokus	-10.2377
▁zápase	-10.2377
▁narození	-10.2379
▁patrně	-10.2383
▁končí	-10.2386
ré	-10.2386
▁proměn	-10.2387
▁navštěvoval	-10.2389
▁zbraní	-10.2395
▁náklady	-10.2399
▁aplikace	-10.2406
▁běžně	-10.2409
▁měření	-10.241
▁mikro	-10.2416
▁hoře	-10.2419
▁významnou	-10.242
▁amerického	-10.2425
▁dostat	-10.2425
▁vztahu	-10.2428
ise	-10.2429
▁student	-10.243
átu	-10.2435
až	-10.2436
▁potřeby	-10.2441
▁zboží	-10.2441
▁novinář	-10.2442
▁vod	-10.2442
▁dvůr	-10.2446
▁vydává	-10.2449
gal	-10.2453
kup	-10.2455
▁windows	-10.2457
▁muže	-10.2458
▁obrazy	-10.2462
itou	-10.2464
▁neboli	-10.2465
▁top	-10.2472
01	-10.2476
▁učení	-10.2479
▁der	-10.2479
▁obrany	-10.2481
chová	-10.2482
▁zvýšení	-10.2482
▁vys	-10.2485
▁ukončil	-10.2485
ero	-10.2488
ep	-10.2491
skem	-10.2493
▁stupně	-10.2505
chyt	-10.2509
▁změně	-10.2511
▁setkání	-10.2516
cl	-10.2519
▁čtvrti	-10.2524
▁manželka	-10.2527
▁vzdělávání	-10.2529
▁zástupce	-10.2535
▁praxi	-10.2535
▁(5	-10.2543
▁přešel	-10.2548
▁vznikly	-10.2549
▁republika	-10.2557
▁mono	-10.2558
▁obhájil	-10.2563
▁spolku	-10.2567
▁tel	-10.2574
▁krátké	-10.2576
ij	-10.2576
▁mark	-10.2583
▁26	-10.2587
48	-10.2589
▁dokázal	-10.2592
lic	-10.2595
▁cest	-10.2597
dom	-10.26
▁jud	-10.2605
ovců	-10.2606
▁pla	-10.2609
▁příležitosti	-10.2611
▁tlak	-10.2611
▁revoluce	-10.2612
▁oslav	-10.2616
▁hudbu	-10.2618
▁nepři	-10.262
mp	-10.2622
▁závěru	-10.2627
▁et	-10.2628
tar	-10.2629
wi	-10.263
▁bran	-10.2631
ole	-10.2632
druž	-10.2638
nis	-10.2641
▁dia	-10.2641
ající	-10.2643
▁kapela	-10.2646
gor	-10.2652
jo	-10.2653
▁peníze	-10.2656
plav	-10.2656
_2	-10.2658
▁uhlí	-10.2659
▁umístěn	-10.2662
▁bývalého	-10.2662
bl	-10.2665
▁dědictví	-10.2673
▁zemského	-10.2674
níci	-10.2679
▁1924	-10.268
▁elektron	-10.2681
▁jezera	-10.2684
wan	-10.2689
▁stra	-10.2689
”	-10.269
▁podmínek	-10.2693
ens	-10.2696
mor	-10.2698
▁středo	-10.2703
▁bra	-10.2703
▁okolní	-10.2705
▁(12	-10.2705
▁bývalé	-10.271
▁mnohé	-10.2711
▁postavil	-10.2716
▁základ	-10.2726
▁dvora	-10.2727
▁komunistické	-10.2728
▁průčelí	-10.2734
▁uváděn	-10.2736
ata	-10.2737
gin	-10.2748
▁ladislav	-10.2748
▁značné	-10.2749
▁jazyků	-10.2753
áž	-10.2753
▁vystoupení	-10.2753
04	-10.2754
▁tisk	-10.2756
▁port	-10.2762
ená	-10.2763
▁kost	-10.2768
▁významných	-10.2768
▁nev	-10.2771
03	-10.2772
▁1954	-10.2774
▁1925	-10.2774
▁příkaz	-10.2775
▁klíč	-10.2777
qui	-10.2777
▁říši	-10.2778
▁umělecké	-10.2778
▁komp	-10.278
▁svá	-10.2782
▁tr	-10.2783
itel	-10.2785
ks	-10.2793
hor	-10.2794
ula	-10.2794
▁hřbitov	-10.2795
▁postavit	-10.2795
tice	-10.2797
typ	-10.2798
▁1962	-10.2801
tom	-10.2802
▁1928	-10.2809
▁kryt	-10.2815
▁1957	-10.2818
měn	-10.2818
▁osada	-10.2825
▁karlovy	-10.2828
dia	-10.2831
zd	-10.2834
▁zapojil	-10.2834
▁domov	-10.2836
▁tvrz	-10.2841
ška	-10.2841
fal	-10.2841
▁vládu	-10.2846
▁samotné	-10.2849
▁zranění	-10.285
▁tradice	-10.2856
ola	-10.2858
štině	-10.2858
▁dokument	-10.2862
▁plody	-10.2867
čín	-10.2868
“)	-10.2874
▁renesanční	-10.288
▁okresu	-10.2886
kla	-10.2892
jdou	-10.2894
▁letu	-10.2903
▁reakce	-10.2905
stro	-10.2918
▁srdce	-10.292
▁okna	-10.2922
▁strojů	-10.2922
▁úseku	-10.2934
▁skupinou	-10.2936
▁knihu	-10.2939
_	-10.294
▁británie	-10.2947
▁materiálu	-10.2948
cykl	-10.295
nt	-10.2955
ig	-10.2957
▁patřila	-10.2959
▁jižním	-10.2959
▁británii	-10.2962
▁pojetí	-10.2964
▁dnešního	-10.2969
kový	-10.2971
▁tvorbě	-10.2971
▁textu	-10.2973
▁gól	-10.2977
tech	-10.298
kop	-10.2981
▁plochy	-10.2984
art	-10.2989
poč	-10.2993
rum	-10.2995
tiv	-10.2997
▁jiným	-10.2998
▁mohlo	-10.3
pel	-10.3001
▁kapli	-10.3003
▁spoj	-10.3008
ju	-10.3009
▁1,	-10.3009
ona	-10.301
▁hora	-10.301
▁dokončil	-10.3013
▁standardní	-10.3016
▁(6	-10.3017
▁středu	-10.3017
cy	-10.3018
▁turnaj	-10.3018
▁server	-10.3021
eno	-10.3023
▁chráněn	-10.3023
▁cd	-10.3024
line	-10.3025
▁dopis	-10.3027
▁uveden	-10.3028
▁začne	-10.3031
▁hráčů	-10.3031
▁blok	-10.3035
▁jedinou	-10.3039
ostí	-10.3043
▁dlouhodobě	-10.3043
▁fil	-10.3047
ino	-10.305
▁návrhu	-10.3053
▁umístění	-10.3057
▁těsně	-10.3059
▁šach	-10.3061
▁skladby	-10.3062
ville	-10.3065
out	-10.307
▁letouny	-10.3073
lové	-10.3076
▁vlastnictví	-10.3076
▁díl	-10.3077
▁výstup	-10.3077
▁forma	-10.3083
▁poháru	-10.3083
▁systémů	-10.3084
tz	-10.3086
▁centru	-10.309
býval	-10.3091
▁pověřen	-10.3099
▁prototyp	-10.3105
vz	-10.3109
jet	-10.3114
eli	-10.3122
zení	-10.3124
▁radě	-10.3126
▁vodou	-10.3129
stru	-10.313
▁1933	-10.313
nut	-10.3137
▁pokračuje	-10.3137
▁hal	-10.315
rs	-10.315
ano	-10.3151
▁wa	-10.3158
▁prostředky	-10.3162
▁letecké	-10.3163
zl	-10.3168
ag	-10.3171
▁plánu	-10.3177
ený	-10.318
chem	-10.3184
▁1923	-10.3187
▁matky	-10.3188
▁zabýval	-10.319
áček	-10.3192
▁1934	-10.3193
▁sad	-10.3195
▁anglii	-10.3195
rů	-10.3196
▁pokusil	-10.3197
bol	-10.3199
▁severo	-10.3202
▁kup	-10.3202
▁mění	-10.3203
▁věk	-10.3204
▁třemi	-10.3207
▁odborné	-10.3213
▁automobil	-10.3215
qua	-10.3216
▁dcerou	-10.3217
▁frank	-10.3218
ella	-10.3218
▁dlouhou	-10.3218
vil	-10.3223
▁mohly	-10.3224
▁umístěna	-10.3225
gel	-10.3225
ier	-10.3226
▁test	-10.3229
▁alp	-10.3232
▁nejméně	-10.3235
▁dceru	-10.3238
cin	-10.3243
▁produkce	-10.3244
▁popisuje	-10.3246
▁ročník	-10.3248
▁využít	-10.325
▁objevují	-10.3252
▁vnější	-10.3255
▁+	-10.3257
way	-10.3258
▁židé	-10.3262
▁wi	-10.3262
▁zrušen	-10.3262
▁poskytuje	-10.3263
▁děj	-10.3263
▁příkladem	-10.3267
▁světla	-10.3269
▁asistent	-10.3269
▁moři	-10.3274
▁všem	-10.3275
52	-10.3278
▁1959	-10.3279
fin	-10.3281
▁literatury	-10.3281
–1	-10.3286
▁veškeré	-10.3287
▁označil	-10.3287
▁techniky	-10.3291
?	-10.3291
sy	-10.3294
▁video	-10.3296
▁černý	-10.3299
▁možná	-10.33
▁úkol	-10.33
▁použit	-10.33
▁sokol	-10.3302
▁mag	-10.3303
▁dálnice	-10.3303
▁klasické	-10.3304
▁důvodem	-10.3305
▁československu	-10.3306
▁alb	-10.3307
▁plzeň	-10.3307
▁prezidentem	-10.3308
▁připojil	-10.3309
▁péče	-10.3309
▁kapely	-10.331
▁nucen	-10.331
▁řez	-10.3312
▁jih	-10.3312
▁překlad	-10.3318
▁tvrdí	-10.3318
▁nemocnice	-10.3319
▁codice	-10.332
▁vedlo	-10.3322
▁rusku	-10.3323
▁západě	-10.3325
ria	-10.333
▁podnikatel	-10.3331
▁asii	-10.3333
▁podporoval	-10.3336
cího	-10.3336
▁efekt	-10.3339
▁poslanecké	-10.3342
▁manželky	-10.3342
ap	-10.3343
izoval	-10.335
▁uspořádání	-10.3351
▁hráči	-10.3352
▁william	-10.3352
▁pat	-10.3354
▁podniku	-10.3354
▁konkrétně	-10.3355
dla	-10.3356
▁regionální	-10.3363
▁1955	-10.3363
▁nemohl	-10.3365
sson	-10.3367
metr	-10.337
▁různými	-10.3371
lice	-10.3372
▁odpovídá	-10.3385
▁obchodu	-10.3394
▁kos	-10.3396
oh	-10.3401
▁spol	-10.3402
▁konec	-10.3403
nus	-10.3403
živ	-10.3407
jezd	-10.3408
▁relativně	-10.3409
akt	-10.3411
▁světlo	-10.3414
▁mládí	-10.3421
▁jakub	-10.3421
▁pohybuje	-10.3423
štiny	-10.343
lez	-10.343
▁kterými	-10.3431
▁starého	-10.3431
▁city	-10.3431
▁počítače	-10.3438
▁změnil	-10.344
▁církev	-10.3442
▁zůstává	-10.3443
▁sochy	-10.3443
▁mel	-10.3444
▁francouzského	-10.3445
▁jejímž	-10.3446
▁získali	-10.345
ovník	-10.3453
▁kul	-10.3454
▁fázi	-10.3454
▁hu	-10.3469
any	-10.3469
řit	-10.3472
▁židů	-10.3474
ává	-10.3475
▁mladý	-10.3475
bul	-10.3479
▁labem	-10.3482
rna	-10.3483
ovaným	-10.3483
▁černo	-10.3484
▁kříže	-10.3484
▁hodnota	-10.3485
histor	-10.3486
▁boha	-10.3487
mas	-10.3487
burg	-10.3489
▁záření	-10.349
▁1931	-10.3492
▁hmotnost	-10.3493
mb	-10.3494
▁zlom	-10.3495
▁řad	-10.3497
▁bos	-10.3499
ativní	-10.3503
ša	-10.3506
▁1922	-10.3507
▁1914	-10.3507
▁jean	-10.3508
mus	-10.351
23	-10.3512
▁ministerstvo	-10.3512
svět	-10.3521
▁semena	-10.3524
▁volné	-10.3527
pí	-10.3527
▁úplně	-10.3528
▁vysokých	-10.3529
08	-10.353
dit	-10.3534
▁hrách	-10.3538
při	-10.3538
▁(10	-10.3539
▁prospěch	-10.3542
icko	-10.3543
72	-10.3551
▁civilní	-10.3552
vou	-10.3552
▁zbraně	-10.3552
▁odchodu	-10.3555
▁sexuální	-10.3561
▁školní	-10.3562
▁pohybu	-10.3566
▁rekonstrukce	-10.3566
sed	-10.357
pě	-10.3574
gram	-10.3577
las	-10.3578
▁turnaje	-10.3578
▁hlavy	-10.3579
▁galerie	-10.358
▁hodiny	-10.3582
včetně	-10.3582
▁aktivity	-10.3583
▁přírodě	-10.3585
▁setkal	-10.3589
▁fakulty	-10.3595
▁vysílání	-10.3596
vé	-10.3596
vání	-10.3601
▁řekl	-10.3602
▁svobody	-10.3605
▁omezení	-10.3607
▁zápasů	-10.3612
▁obecní	-10.3612
▁československý	-10.3613
try	-10.3624
vr	-10.3625
▁znaky	-10.3625
ána	-10.3626
kv	-10.3626
▁sociálních	-10.3636
▁zařazen	-10.364
▁fáze	-10.3642
02	-10.3643
▁porazil	-10.3643
▁ruska	-10.3644
▁linka	-10.3646
57	-10.3652
▁sídlí	-10.3652
▁motoru	-10.3653
▁zajat	-10.3655
▁princip	-10.3656
09	-10.3658
bil	-10.3663
▁kw	-10.3664
▁známo	-10.367
dávají	-10.367
sc	-10.3672
▁užívá	-10.3674
▁průzkum	-10.3676
▁had	-10.3678
▁tvorby	-10.3681
ovského	-10.3684
▁těžké	-10.3684
▁spolupráce	-10.3685
eg	-10.3686
stí	-10.3688
▁zásadní	-10.3692
▁dopravu	-10.3693
hoř	-10.3695
▁27	-10.3697
bert	-10.3699
▁historik	-10.37
▁modul	-10.37
▁nemají	-10.3701
56	-10.3703
▁pavla	-10.3707
▁prvků	-10.3707
▁stromů	-10.3709
▁ročně	-10.3711
▁1000	-10.3715
▁atp	-10.3716
psán	-10.3719
jak	-10.3725
▁příklad	-10.3726
tk	-10.3726
▁dokončení	-10.3729
▁28	-10.373
▁olympijských	-10.373
cká	-10.373
▁90	-10.3731
▁jisté	-10.3732
▁africe	-10.3733
ovka	-10.3737
▁graf	-10.3738
▁složil	-10.3739
▁délky	-10.374
elné	-10.3741
▁zdi	-10.3747
ins	-10.3749
ance	-10.3753
lil	-10.3754
atel	-10.3762
▁prý	-10.3764
▁divize	-10.3765
▁cestou	-10.377
▁většiny	-10.3772
▁show	-10.3775
mýt	-10.3775
rn	-10.3777
▁hrob	-10.3778
jedná	-10.378
▁zoo	-10.3786
itě	-10.3786
▁str	-10.3795
▁výstavba	-10.3796
prac	-10.3796
▁james	-10.3797
▁středověku	-10.3799
sto	-10.38
▁významu	-10.3802
▁původních	-10.3802
ině	-10.3804
▁stranách	-10.3805
▁třída	-10.3805
▁lékař	-10.3811
tis	-10.3811
▁žijí	-10.3821
▁řadí	-10.3823
▁většině	-10.3827
▁večer	-10.3833
▁filmů	-10.3833
▁nim	-10.3834
nin	-10.3835
▁seznámil	-10.384
▁řeka	-10.3842
▁polska	-10.3846
ida	-10.3846
▁premiér	-10.3847
▁objekty	-10.385
old	-10.3856
▁tre	-10.3857
▁úsek	-10.3857
hen	-10.3857
▁zřízení	-10.3858
▁zpěv	-10.3859
▁hrála	-10.3865
▁transport	-10.3868
▁real	-10.3868
▁nejvyšším	-10.3869
▁řek	-10.3871
▁pohledu	-10.3881
▁45	-10.3884
▁doktor	-10.3887
ow	-10.3893
▁dílem	-10.3897
▁ar	-10.3898
běh	-10.3901
▁spolek	-10.3901
▁osady	-10.3908
▁prince	-10.3911
▁sbírky	-10.3912
put	-10.3919
▁rozhraní	-10.3922
up	-10.3929
▁agent	-10.3931
▁založené	-10.3933
▁ostrovy	-10.3934
▁těch	-10.3935
▁významný	-10.3938
▁herec	-10.3938
ds	-10.3939
▁pevnost	-10.3944
▁obyvatelstvo	-10.3947
▁(7	-10.3948
nová	-10.3951
vu	-10.3952
▁inženýr	-10.3953
top	-10.3953
▁výročí	-10.3958
▁závodu	-10.3961
▁daniel	-10.3962
išti	-10.3963
anti	-10.3965
iky	-10.3966
▁vyšlo	-10.3967
part	-10.3967
▁armádě	-10.3968
▁měsíc	-10.3972
▁medaili	-10.3973
▁walter	-10.3979
▁nikdo	-10.3982
▁modelu	-10.3982
sz	-10.3987
▁románu	-10.3988
▁závěr	-10.399
▁knihovna	-10.3992
▁hřeben	-10.3993
▁voleb	-10.3996
58	-10.4001
▁bojů	-10.4004
yl	-10.4006
střel	-10.4006
▁používání	-10.4008
▁návrat	-10.4008
ring	-10.4011
▁společenství	-10.4011
▁organizaci	-10.4012
▁rezervace	-10.4012
▁národů	-10.4013
▁novin	-10.4015
▁domy	-10.4017
und	-10.4017
▁žijící	-10.4019
▁míru	-10.402
▁kariéry	-10.4021
▁zásob	-10.4022
▁historických	-10.4024
▁jmenoval	-10.4028
▁objev	-10.4029
▁ju	-10.4031
▁albu	-10.4032
liš	-10.4032
▁profesorem	-10.4034
išť	-10.4038
▁noční	-10.4039
▁poškození	-10.4041
▁použil	-10.4045
az	-10.405
ér	-10.4051
▁podstatě	-10.4051
▁1900	-10.4052
▁budově	-10.4053
▁požár	-10.4056
▁formy	-10.4056
▁saint	-10.4057
▁volně	-10.406
1.	-10.4067
vit	-10.4067
▁zabývá	-10.4068
▁rusko	-10.4069
▁stromy	-10.407
▁dává	-10.4073
▁výzbroj	-10.4075
▁kun	-10.4079
▁1917	-10.408
io	-10.4086
▁vlastním	-10.4088
▁opatření	-10.4088
▁ber	-10.4089
raz	-10.4092
▁vzdálenost	-10.4093
▁připomíná	-10.4093
▁stanislav	-10.4102
▁ležící	-10.4105
▁architektury	-10.4112
▁hospodářské	-10.4113
▁chyb	-10.4114
▁sal	-10.4119
▁výhradně	-10.4123
▁papír	-10.4126
▁překladu	-10.4131
▁přírody	-10.4135
▁federace	-10.4135
▁typů	-10.4136
▁původním	-10.4136
nech	-10.4136
▁stavbě	-10.4137
▁blízko	-10.4137
pust	-10.414
▁letadla	-10.4141
▁premiéru	-10.4148
nar	-10.4158
▁1848	-10.4163
▁světle	-10.4164
▁místem	-10.4165
▁will	-10.4165
▁barev	-10.4167
▁koz	-10.4168
▁musela	-10.417
▁objektu	-10.4175
▁aj	-10.4179
▁obsahující	-10.4179
lová	-10.418
▁1927	-10.4181
šla	-10.4181
▁nezávislost	-10.4181
▁%.	-10.4181
▁vrací	-10.4185
ňoval	-10.4186
▁buněk	-10.4189
▁touto	-10.4198
▁využil	-10.4199
▁dosáhnout	-10.42
▁trvale	-10.4209
▁polsku	-10.4211
▁ovlivněn	-10.4215
▁boční	-10.4215
ivní	-10.4217
▁rybník	-10.4218
▁sezoně	-10.422
▁informační	-10.4222
▁bob	-10.4226
▁zápasy	-10.4226
▁kapitán	-10.4233
▁schopnosti	-10.4234
▁jediné	-10.4236
▁120	-10.4241
▁1911	-10.4245
▁vlastně	-10.4247
▁schopen	-10.4247
tah	-10.4249
▁nástroje	-10.4251
▁zástupci	-10.4252
▁básník	-10.4253
bož	-10.4256
▁rozšířil	-10.4268
▁nepřátel	-10.4271
▁dan	-10.4273
▁poražen	-10.4273
▁závislosti	-10.4277
▁učil	-10.428
ä	-10.428
▁soudní	-10.4283
▁col	-10.4284
iš	-10.4286
sob	-10.4288
pou	-10.4291
▁hvězdy	-10.4294
▁vybrán	-10.4294
▁teorii	-10.4294
ča	-10.4297
▁předpokládá	-10.4298
▁důraz	-10.4301
▁studovat	-10.4303
▁lize	-10.4305
▁rakouský	-10.4307
▁fin	-10.4311
▁vojsk	-10.4311
▁vozu	-10.4312
▁starý	-10.4312
▁vysoký	-10.4313
▁viktor	-10.4322
gg	-10.4322
tv	-10.4324
▁systémem	-10.4334
▁dané	-10.4335
▁coby	-10.4336
lav	-10.4341
▁vodu	-10.4343
ary	-10.4344
▁can	-10.4346
▁world	-10.4346
cc	-10.4348
entní	-10.4352
tická	-10.4354
▁host	-10.4356
▁středně	-10.4356
užit	-10.4356
▁věnuje	-10.436
▁dojde	-10.4362
ub	-10.4364
▁tan	-10.4366
kus	-10.4369
▁boží	-10.4376
▁posádky	-10.4377
с	-10.4377
▁deska	-10.4379
▁téma	-10.4381
▁stud	-10.4382
▁umělců	-10.4383
hav	-10.4384
▁zbytky	-10.4384
▁považována	-10.4384
51	-10.4387
▁konečně	-10.4391
sled	-10.4404
nebo	-10.4405
▁mostu	-10.4406
ea	-10.4408
▁objektů	-10.4408
▁cha	-10.4409
▁hotel	-10.4413
▁zahraničních	-10.4417
▁vstupní	-10.4417
běž	-10.4418
▁volební	-10.4418
▁ram	-10.442
▁jednotka	-10.4421
▁digitální	-10.4422
▁státního	-10.4423
▁úroveň	-10.4429
lus	-10.4429
▁(11	-10.443
°	-10.4435
čku	-10.4436
▁smrtí	-10.4436
▁hodnosti	-10.4437
dou	-10.4439
▁sochař	-10.4441
cké	-10.4441
tř	-10.4444
▁carl	-10.4446
▁1912	-10.4448
▁otcem	-10.4449
oj	-10.4459
▁doba	-10.446
▁běžné	-10.4462
▁rádi	-10.4463
-4	-10.4464
▁bitva	-10.4468
ford	-10.4469
▁údajů	-10.4472
▁staveb	-10.4478
▁vědecké	-10.4484
▁charles	-10.4484
▁takový	-10.4485
▁geo	-10.4485
▁zdraví	-10.4488
▁drobné	-10.4488
lín	-10.4491
▁krás	-10.4491
▁ihned	-10.4491
ánek	-10.4498
▁maria	-10.4501
▁celkový	-10.4501
▁gu	-10.4503
bin	-10.4507
chov	-10.4509
▁letní	-10.4509
▁týmem	-10.4509
jako	-10.4513
▁písemná	-10.4514
▁zvuk	-10.4515
▁var	-10.4515
fik	-10.4522
▁dřeva	-10.4522
▁považuje	-10.4523
▁hodnotu	-10.4523
▁pán	-10.4523
ora	-10.4526
▁brna	-10.4528
▁katolické	-10.4528
▁rakouska	-10.4532
▁přestěhoval	-10.4538
▁popsal	-10.454
▁získání	-10.454
nicí	-10.4541
▁kontrolu	-10.4541
chod	-10.4543
▁dřevo	-10.4543
▁souboru	-10.4546
ning	-10.4547
▁vesmíru	-10.4547
dé	-10.4548
▁pil	-10.4549
▁dvojice	-10.4551
tru	-10.4551
▁ředitele	-10.4551
▁dostalo	-10.4555
▁údaje	-10.4555
▁podobný	-10.4561
▁rozdělen	-10.4562
▁toku	-10.4564
▁paláce	-10.4567
▁rou	-10.4568
▁každého	-10.4572
▁čin	-10.4573
▁kanál	-10.4576
▁nos	-10.4578
▁sol	-10.4579
lich	-10.4579
▁vedlejší	-10.4581
▁věcí	-10.4582
dán	-10.4584
▁1926	-10.4587
of	-10.4588
▁společné	-10.459
▁pravidla	-10.4593
▁fal	-10.4597
▁městech	-10.4597
ína	-10.46
hle	-10.4603
–16	-10.4603
▁jím	-10.4604
▁věr	-10.4606
▁vědy	-10.4606
▁představen	-10.4608
▁přednost	-10.4609
níku	-10.461
▁mer	-10.461
▁letounu	-10.4626
▁možností	-10.4626
▁vývoji	-10.4627
▁ztratil	-10.463
▁mon	-10.4631
ndr	-10.4633
▁účely	-10.4639
▁majitel	-10.464
▁uvedena	-10.464
▁map	-10.4642
▁nemusí	-10.4642
▁produkt	-10.4646
tit	-10.4646
▁(8	-10.4647
▁kra	-10.4647
▁krist	-10.4649
ryt	-10.4649
▁polské	-10.4654
▁socha	-10.4654
▁přijetí	-10.4656
▁formální	-10.4658
▁obrat	-10.4662
▁událostí	-10.4664
▁cho	-10.4666
ther	-10.4667
▁potoka	-10.467
též	-10.467
▁postava	-10.4676
▁kvalitní	-10.4681
▁dalšího	-10.4681
▁ekonomické	-10.4682
▁oprav	-10.4683
▁průmyslové	-10.4683
ňování	-10.4684
▁slib	-10.4686
vede	-10.4687
ávání	-10.4688
▁elektrické	-10.4688
▁bank	-10.4689
▁lom	-10.4695
▁americká	-10.4696
▁boku	-10.4698
▁mě	-10.47
tráv	-10.4702
▁elektro	-10.4702
53	-10.4707
▁západ	-10.4709
▁hovoří	-10.471
▁600	-10.4711
kel	-10.4711
▁propuštěn	-10.4711
▁lokomotiv	-10.4714
▁mistr	-10.4717
▁přidal	-10.4719
▁uni	-10.4721
stě	-10.4723
žil	-10.4724
▁zločin	-10.4726
▁východním	-10.4727
lia	-10.4729
▁ros	-10.4733
král	-10.4735
▁limit	-10.4737
▁opevnění	-10.474
1,	-10.4742
áře	-10.4742
▁taktéž	-10.4744
▁mont	-10.4745
▁průmysl	-10.4747
▁dějiny	-10.4748
▁římě	-10.4748
nk	-10.4752
vět	-10.4752
▁afriky	-10.4753
rus	-10.4754
▁čssd	-10.476
▁lépe	-10.4761
▁padl	-10.4762
▁ep	-10.4762
▁odjel	-10.4768
and	-10.4769
sem	-10.4771
×	-10.4771
▁ostatními	-10.4772
▁postoupil	-10.4775
▁sedl	-10.4775
▁proudu	-10.4778
opis	-10.4779
▁meč	-10.4781
ara	-10.4781
▁vozidla	-10.4781
dají	-10.4782
šlo	-10.4784
▁sovětského	-10.4786
▁italské	-10.4787
klen	-10.4792
▁princ	-10.4792
los	-10.4793
▁malou	-10.4794
ava	-10.4795
▁správu	-10.4796
▁rakousku	-10.4797
▁tábora	-10.4799
enci	-10.4803
2)	-10.4807
▁mir	-10.4809
▁událost	-10.4813
▁nástroj	-10.4814
low	-10.4822
▁existenci	-10.4824
▁izrael	-10.4826
anglicky	-10.4827
▁růž	-10.4828
▁kandidát	-10.4831
▁široký	-10.4832
▁paříže	-10.4832
▁pražském	-10.4834
▁zavedení	-10.4837
▁potvrdil	-10.4837
▁negativní	-10.4839
nická	-10.484
▁vyšel	-10.4841
▁lesy	-10.4843
mes	-10.4845
▁pes	-10.4845
jel	-10.4845
sla	-10.4845
▁jihovýchodní	-10.4851
▁úpravy	-10.4852
▁úspěšné	-10.4852
▁metoda	-10.4857
▁rus	-10.4858
▁1910	-10.4859
náš	-10.486
▁osud	-10.4865
▁bell	-10.4865
pul	-10.4867
▁daleko	-10.4867
▁výsledek	-10.4868
▁nebezpečí	-10.4871
▁anton	-10.4872
▁zkušenosti	-10.4874
rac	-10.4875
▁podobu	-10.4878
ičky	-10.4886
▁používal	-10.4887
▁peněz	-10.4893
▁start	-10.4893
▁1907	-10.4895
▁pocházející	-10.4895
suz	-10.4896
enský	-10.4904
▁teplota	-10.4905
dž	-10.4908
▁bělo	-10.4909
▁přispěl	-10.4915
▁max	-10.4915
▁ms	-10.4917
▁semifinále	-10.4919
▁autorů	-10.4919
▁samotný	-10.492
▁vrátit	-10.4928
▁hodnocení	-10.4932
▁policejní	-10.4933
vázán	-10.4934
▁těles	-10.4939
3.	-10.4941
▁emil	-10.4942
▁lokální	-10.4951
▁odvozen	-10.4951
eny	-10.496
angl	-10.4963
ovitá	-10.4964
ených	-10.4968
▁nějaké	-10.4969
▁německá	-10.497
▁něhož	-10.4973
▁velitelem	-10.4975
ingu	-10.4976
▁hod	-10.4979
▁rozhodla	-10.4979
▁nato	-10.498
▁přichází	-10.4981
▁eduard	-10.4984
▁formu	-10.4985
ada	-10.4987
▁vojenskou	-10.4988
▁ujal	-10.499
▁prof	-10.4993
tus	-10.4993
luč	-10.4996
vek	-10.5001
▁kníže	-10.5001
▁poměr	-10.5002
▁kmen	-10.5002
▁prostředků	-10.5003
▁vojsko	-10.5007
▁okraj	-10.5008
▁východně	-10.5012
▁(9	-10.5013
▁web	-10.5017
▁sčítání	-10.5017
og	-10.5019
▁devět	-10.5019
▁okamžitě	-10.5021
▁smysl	-10.5024
ud	-10.5025
▁zlatý	-10.5037
▁všechna	-10.5038
▁lidmi	-10.5042
▁českým	-10.5043
▁tur	-10.5045
▁doma	-10.5046
▁výši	-10.5047
čení	-10.5047
▁pobytu	-10.5055
▁televize	-10.5058
▁zlaté	-10.5059
▁snížení	-10.506
▁jar	-10.5062
inou	-10.5065
▁ban	-10.5067
stá	-10.5068
▁ptáků	-10.507
wer	-10.5072
▁funguje	-10.5073
▁jednoduché	-10.508
▁hřbitově	-10.5082
▁lou	-10.5095
▁připojení	-10.51
oko	-10.51
▁devíti	-10.511
▁fu	-10.511
▁knihovny	-10.5112
▁pohár	-10.5112
▁největších	-10.5113
▁červené	-10.5113
▁ukrajin	-10.5114
▁uzavřel	-10.5117
▁georg	-10.5119
▁neod	-10.5122
▁1905	-10.5123
▁albert	-10.5124
▁radi	-10.513
▁art	-10.5131
▁otevřené	-10.5134
▁korunní	-10.5135
▁36	-10.5138
áci	-10.5143
▁neustále	-10.5143
tov	-10.5143
▁ján	-10.5144
bs	-10.5145
ickém	-10.5147
▁titulu	-10.5149
▁gymnáziu	-10.5155
bur	-10.5156
▁opat	-10.5157
▁vodě	-10.5157
▁okresní	-10.5158
▁red	-10.5158
▁základem	-10.5163
▁diváků	-10.5164
▁vln	-10.5167
én	-10.5168
▁zjistí	-10.5173
▁studentů	-10.5173
▁němci	-10.5175
rub	-10.5175
▁tele	-10.5177
▁paříž	-10.5181
▁sklad	-10.5188
▁svojí	-10.5188
▁joseph	-10.5192
▁jádra	-10.5192
▁berlíně	-10.5192
▁bitvy	-10.5193
▁farnosti	-10.5195
▁vídeň	-10.5198
▁motiv	-10.52
enberg	-10.5202
▁zavedl	-10.5202
▁látek	-10.5204
▁poklad	-10.5208
▁židovského	-10.5213
lip	-10.5214
char	-10.5222
▁poslal	-10.5222
▁dolů	-10.5223
▁akcí	-10.5224
▁akci	-10.5226
▁nemoc	-10.5227
ujících	-10.523
osa	-10.523
▁ukazuje	-10.5231
▁městského	-10.5231
tisk	-10.5231
▁desky	-10.5233
▁odbor	-10.5234
tl	-10.5235
54	-10.524
wald	-10.524
▁lidi	-10.5241
▁míry	-10.5241
af	-10.5243
can	-10.525
▁bojoval	-10.5252
blo	-10.5255
▁věnovat	-10.5255
trop	-10.5261
ýr	-10.5262
▁umístil	-10.5263
▁žili	-10.5263
▁následujícím	-10.5265
▁orchestr	-10.5266
dis	-10.527
▁podporuje	-10.5273
non	-10.5274
▁památky	-10.5274
▁semen	-10.5277
▁procent	-10.5277
aria	-10.5278
▁objeví	-10.5278
rk	-10.5278
▁světovou	-10.5279
▁aktuální	-10.5282
▁dřevěné	-10.5297
kut	-10.5301
▁nebude	-10.5304
▁silniční	-10.5305
▁funkční	-10.5306
▁přátel	-10.5311
dem	-10.5315
▁pravé	-10.5317
▁vyhrála	-10.5318
mít	-10.5321
▁výrobce	-10.5332
▁škoda	-10.5333
ras	-10.5336
gl	-10.5336
▁menších	-10.5337
rp	-10.5337
▁zahrady	-10.5338
wood	-10.534
▁jádro	-10.5343
▁adres	-10.5347
▁školství	-10.5349
klid	-10.535
ming	-10.5352
▁pokračování	-10.5354
▁ústřední	-10.5359
ián	-10.536
▁režim	-10.5363
▁objem	-10.5368
kres	-10.5368
itá	-10.5369
▁západně	-10.5378
▁obecný	-10.5379
▁bezpečnostní	-10.5382
▁problémů	-10.5383
mluvil	-10.5386
▁instituce	-10.5388
▁tunel	-10.5388
▁lidem	-10.5391
▁kandidoval	-10.5392
čer	-10.5395
▁následujícího	-10.5399
oc	-10.5401
▁nhl	-10.5402
▁farní	-10.5404
ovicích	-10.5406
ile	-10.5408
nému	-10.5411
▁skalní	-10.5412
▁tito	-10.5413
▁naprosto	-10.5415
šin	-10.5417
▁disk	-10.5417
-17	-10.5421
▁dokončena	-10.5421
▁kámen	-10.5424
stud	-10.5429
stu	-10.5429
▁formou	-10.543
▁obsadil	-10.5434
níky	-10.5435
lep	-10.5436
▁trvá	-10.5441
▁předsedy	-10.5441
▁vzdělávací	-10.5445
▁získalo	-10.5445
▁občanů	-10.5446
▁obrazů	-10.5451
cer	-10.5453
▁zájmu	-10.5453
▁umístěny	-10.5454
▁zemědělské	-10.5455
▁zahájení	-10.5458
▁požádal	-10.5464
▁status	-10.5467
▁trasa	-10.5471
▁foto	-10.5474
▁výskyt	-10.5475
▁záhy	-10.5476
▁předmětem	-10.5477
▁zaznamenal	-10.5477
koliv	-10.5479
▁epi	-10.5481
field	-10.5492
▁něho	-10.5493
ef	-10.5494
▁stráž	-10.5495
▁portál	-10.5498
▁prostory	-10.5499
▁kardinál	-10.5499
hla	-10.5499
▁sněm	-10.5501
▁pohlaví	-10.5503
▁jakožto	-10.5504
ivé	-10.5505
▁1,5	-10.5505
▁uměl	-10.5505
▁kle	-10.5505
▁úředník	-10.5506
▁výsad	-10.5507
utí	-10.5507
▁zajišťuje	-10.5511
▁oběma	-10.5511
lor	-10.5514
▁poněkud	-10.5514
kládá	-10.5515
▁stan	-10.5518
hat	-10.5518
▁zraněn	-10.5518
▁stíhací	-10.5518
▁dostane	-10.5518
▁pěší	-10.5524
▁roh	-10.5527
pot	-10.5533
lib	-10.5534
▁zajistil	-10.5534
▁poslancem	-10.5536
▁nejbližší	-10.5538
▁museli	-10.5544
▁vysoce	-10.5546
lét	-10.5546
▁oltáře	-10.5546
▁podmínkách	-10.5549
bývá	-10.5555
▁letounů	-10.556
▁navzdory	-10.5561
▁válek	-10.5563
▁bázi	-10.5565
plu	-10.5566
▁čp	-10.5566
▁vrátila	-10.5568
▁fotbalový	-10.5571
▁aero	-10.5574
▁žádná	-10.5577
▁městská	-10.5577
feld	-10.5579
▁sestry	-10.5579
▁250	-10.5579
▁výcvik	-10.5579
▁jmen	-10.5582
▁august	-10.5582
anu	-10.5588
▁aktivně	-10.5588
▁světového	-10.5588
▁1908	-10.5589
▁izraeli	-10.559
▁vyvinut	-10.5596
▁naproti	-10.5597
elektr	-10.56
illa	-10.56
▁west	-10.5602
ire	-10.5603
▁britský	-10.5605
rei	-10.5606
▁branky	-10.5607
šet	-10.5609
▁texty	-10.561
▁vojáci	-10.5612
▁kratší	-10.5612
▁štěpán	-10.5615
red	-10.5625
áš	-10.5626
▁definitivně	-10.5627
▁producent	-10.5629
▁provedl	-10.5633
▁radio	-10.5634
▁vystřídal	-10.5635
▁válku	-10.5636
▁aktivit	-10.564
▁typické	-10.5644
▁čtyřech	-10.5646
▁používán	-10.5651
cs	-10.5652
jde	-10.5652
cho	-10.5656
▁kmene	-10.5656
▁louis	-10.5657
sud	-10.5657
▁stará	-10.5661
▁úspěšný	-10.5663
▁dokáže	-10.5665
<	-10.5665
▁potravin	-10.5666
▁bratři	-10.5667
bb	-10.5669
▁mladých	-10.5669
▁pevnosti	-10.5673
▁ženou	-10.5674
vlád	-10.5675
lení	-10.5679
▁johann	-10.568
▁evropského	-10.5683
▁klient	-10.5683
▁sběr	-10.5685
▁památek	-10.5686
▁zakladatel	-10.5687
▁přeložen	-10.5689
▁veřejně	-10.569
▁zastupitelstva	-10.569
▁premiéra	-10.5692
▁přítomnost	-10.5692
▁tudíž	-10.5694
měr	-10.5695
▁národnosti	-10.5698
▁označován	-10.5703
náprav	-10.5709
▁věc	-10.5714
▁teploty	-10.5715
▁výška	-10.5716
▁tvorbu	-10.5717
_1	-10.5718
sv	-10.5718
▁vysvěcen	-10.5721
▁ital	-10.5723
▁vládl	-10.5726
▁přišla	-10.5729
▁studijní	-10.5729
▁komerční	-10.5729
▁indie	-10.573
▁gre	-10.5734
kyně	-10.574
hran	-10.5742
▁výstavy	-10.5742
▁úřady	-10.5744
mit	-10.5744
▁pozitivní	-10.5744
▁dna	-10.5748
▁skutečnost	-10.5751
boh	-10.5753
▁bas	-10.5753
pri	-10.5755
▁měří	-10.5756
▁oči	-10.5765
▁službu	-10.5765
ls	-10.5766
pír	-10.5767
cca	-10.5772
▁eli	-10.5773
měst	-10.5775
▁cizí	-10.5776
▁nízké	-10.5777
▁pivovar	-10.5777
▁nejlépe	-10.5785
▁řeč	-10.5785
▁ať	-10.5786
▁strop	-10.5787
▁dobro	-10.5788
▁osobností	-10.5791
eta	-10.5791
▁mikuláš	-10.5791
▁zahrál	-10.5794
▁kytar	-10.5795
▁vir	-10.5796
▁rakouské	-10.5796
-5	-10.5797
▁zaveden	-10.58
▁bat	-10.5815
organiz	-10.5816
▁odehrává	-10.5816
▁vozidel	-10.5816
▁moravské	-10.582
▁vojenského	-10.5823
▁náklad	-10.5824
▁sestra	-10.5824
rio	-10.5824
▁žádost	-10.5825
▁těmito	-10.5829
▁latin	-10.5832
▁přemysl	-10.5833
▁týmy	-10.5836
tre	-10.584
▁asie	-10.5846
▁telefon	-10.5848
▁článek	-10.5848
▁vstřelil	-10.585
ůj	-10.5852
▁založili	-10.5853
rol	-10.5856
▁představil	-10.5857
▁otevřena	-10.5859
▁krize	-10.586
▁otevření	-10.5862
▁každém	-10.587
▁děd	-10.587
natý	-10.5871
▁zisk	-10.5872
▁vztahů	-10.5872
▁liber	-10.5873
▁čínské	-10.5876
▁stejného	-10.5876
▁brzd	-10.5878
▁zasedal	-10.5878
▁úspěchu	-10.588
▁revoluci	-10.588
▁pozorování	-10.5883
▁vzdal	-10.5887
▁zimní	-10.589
now	-10.5893
▁nalézt	-10.5898
▁hospodářství	-10.59
▁figur	-10.59
▁probíhala	-10.5904
ickými	-10.5905
▁talent	-10.5905
▁zpráv	-10.5906
▁parlament	-10.5907
▁zdrojem	-10.5908
▁minimální	-10.5908
▁jazyky	-10.5909
řík	-10.5912
▁ran	-10.5913
▁1913	-10.5914
cit	-10.5916
nický	-10.5916
stvo	-10.5917
▁kur	-10.5919
eček	-10.592
▁1850	-10.5921
bach	-10.5922
▁vysoko	-10.5924
▁kat	-10.5924
▁pocházejí	-10.5927
▁zápis	-10.5928
▁jediná	-10.5928
▁sousední	-10.5929
▁hum	-10.5931
rop	-10.5931
▁pádu	-10.5935
▁prodal	-10.5937
▁hit	-10.5939
▁prvo	-10.594
▁hráče	-10.594
ovci	-10.5942
▁nastal	-10.5945
▁náboženské	-10.5948
▁účasti	-10.5952
▁signál	-10.5956
zin	-10.5958
▁využívají	-10.5959
▁raket	-10.596
važ	-10.5965
▁vzor	-10.5966
▁zpěvák	-10.5969
ram	-10.5971
▁důležitou	-10.5973
▁udělal	-10.5977
stan	-10.5979
▁oper	-10.598
▁starších	-10.598
▁olomouci	-10.598
▁demokratické	-10.598
▁slovan	-10.5983
get	-10.5983
podle	-10.5987
▁italský	-10.5989
stěn	-10.5996
ovky	-10.5998
▁interpret	-10.5999
rg	-10.6003
▁nepodařilo	-10.6005
▁dopad	-10.601
▁interiér	-10.6011
ić	-10.6012
▁kolon	-10.6012
▁nesmí	-10.6014
tol	-10.6016
▁zvolil	-10.6017
▁lístky	-10.6018
▁profil	-10.602
▁cu	-10.6021
▁vznikají	-10.6022
▁ods	-10.6025
▁lidských	-10.6027
▁provádí	-10.6029
▁manažer	-10.603
▁vlastního	-10.6031
▁luk	-10.6034
▁ztráty	-10.6037
▁protokol	-10.6037
dd	-10.6037
▁konala	-10.6039
ňují	-10.6039
▁mys	-10.6041
▁značky	-10.6042
▁každoročně	-10.6046
▁oldřich	-10.6046
pos	-10.6048
▁nemoci	-10.6051
▁přestup	-10.6052
▁tvořili	-10.6053
▁mise	-10.6053
▁motorů	-10.6054
tní	-10.6059
▁rád	-10.606
gas	-10.6061
qu	-10.6062
▁bohu	-10.6063
▁vyp	-10.6065
▁územní	-10.6067
zel	-10.6067
▁tažení	-10.607
▁ministrem	-10.6076
▁voz	-10.6076
▁syny	-10.6082
hi	-10.6082
▁zemské	-10.6083
▁výrobní	-10.6084
ah	-10.6084
▁rychlostí	-10.6085
▁natočil	-10.6087
▁konal	-10.6092
oví	-10.6093
▁proč	-10.6096
kul	-10.6098
ičtí	-10.6099
▁svatý	-10.6099
rand	-10.6104
▁school	-10.6108
▁moravy	-10.6109
▁plát	-10.6109
▁800	-10.6111
ismem	-10.6116
▁uprchl	-10.6119
▁pravidelné	-10.612
mana	-10.6121
▁vyšších	-10.6123
▁—	-10.6124
▁udělil	-10.6124
▁rub	-10.6125
▁koncert	-10.6128
▁zjistil	-10.613
▁stejnou	-10.613
▁sami	-10.6133
sion	-10.6137
▁hmotnosti	-10.6139
čík	-10.6139
▁motorem	-10.614
▁normální	-10.614
▁připraven	-10.6142
ess	-10.6143
▁registr	-10.6143
▁požadavky	-10.6144
krá	-10.6144
šení	-10.6145
▁chat	-10.6145
▁generální	-10.6146
▁hodně	-10.6146
▁řece	-10.6148
▁novel	-10.6148
ením	-10.615
▁katastru	-10.6151
žení	-10.6151
▁software	-10.6152
istou	-10.6153
ign	-10.6157
▁psaní	-10.616
ás	-10.6161
▁duch	-10.6164
▁tv	-10.6167
▁vyhlásil	-10.6169
▁povolení	-10.617
▁svato	-10.617
nka	-10.617
▁armádou	-10.6171
▁pomalu	-10.6174
▁sloužila	-10.6175
▁muzeu	-10.6183
▁3),	-10.6185
▁jsme	-10.619
▁kamenné	-10.619
▁milionu	-10.619
▁sval	-10.619
▁mezinárodních	-10.6194
▁brod	-10.6194
▁austrálii	-10.6198
▁partner	-10.6201
▁osobnosti	-10.6201
▁1906	-10.6203
znám	-10.6204
▁filmové	-10.6205
▁veřejných	-10.6208
▁asociace	-10.621
▁chráněné	-10.6215
%	-10.6221
izovat	-10.6223
▁zabit	-10.623
▁uskutečnil	-10.623
řad	-10.6237
▁vystupoval	-10.624
▁plocha	-10.6244
▁koně	-10.6245
▁paměť	-10.6247
▁nákladní	-10.6248
▁přinesl	-10.6254
▁eur	-10.6257
▁nedostatek	-10.626
▁stane	-10.6262
▁jindřicha	-10.6263
▁závodě	-10.6264
▁leopold	-10.6265
▁moment	-10.6267
▁králi	-10.6268
▁slovenska	-10.6275
▁jiná	-10.6278
▁tok	-10.6281
tvrd	-10.6281
▁stávající	-10.6282
▁plast	-10.6285
▁podklad	-10.6288
▁společenské	-10.629
▁rozhodne	-10.6291
▁dráhu	-10.6293
olu	-10.6296
▁pomáhal	-10.6296
▁využit	-10.6299
arch	-10.6299
▁názvy	-10.6302
▁hojně	-10.6305
leg	-10.6305
rz	-10.6307
▁trval	-10.6307
▁věží	-10.6309
▁kosm	-10.631
▁33	-10.6313
▁uživatel	-10.6313
▁anglický	-10.6315
▁celková	-10.6315
▁robot	-10.6315
▁zvaný	-10.6316
▁veřejnost	-10.6316
sty	-10.6317
▁zlatých	-10.6321
izační	-10.6325
hrom	-10.6326
н	-10.6328
psané	-10.633
▁chlad	-10.6331
▁širší	-10.6332
jal	-10.6333
▁míře	-10.6334
▁drog	-10.6336
▁lokomotivy	-10.6338
▁obrazu	-10.6339
▁obětí	-10.6339
▁bratrem	-10.6339
▁číně	-10.6344
▁příkop	-10.6345
▁air	-10.6346
▁břez	-10.6347
▁výsledků	-10.6348
▁státních	-10.635
rid	-10.635
rán	-10.6353
nia	-10.6355
▁vydána	-10.6355
▁dosáhla	-10.636
▁prsten	-10.6361
ł	-10.6361
kom	-10.6362
▁international	-10.6363
▁podzemní	-10.6364
▁rozhodčí	-10.6365
▁rozsahu	-10.6366
▁raně	-10.6366
▁pamětní	-10.6373
▁dvanáct	-10.6378
amp	-10.6381
▁struktury	-10.6385
pát	-10.6386
▁hlava	-10.6387
▁koncept	-10.6388
▁cukr	-10.6388
▁místnosti	-10.6395
neu	-10.6395
▁výstavbu	-10.6395
▁black	-10.6398
▁starých	-10.6401
▁music	-10.6401
▁vést	-10.6403
▁holub	-10.6406
▁spisovatele	-10.6409
ávají	-10.6409
rys	-10.6409
▁odpad	-10.6411
▁řazen	-10.6411
▁označením	-10.6412
▁brit	-10.6412
▁rekonstrukci	-10.6415
▁evropský	-10.6416
▁rostou	-10.642
▁hi	-10.642
tlu	-10.642
rik	-10.6421
šen	-10.6423
▁automat	-10.6425
▁doplněn	-10.6429
▁komory	-10.643
▁postoj	-10.6432
▁osn	-10.6432
ett	-10.6433
▁vzhled	-10.6434
vaj	-10.6434
race	-10.6436
▁okruh	-10.6439
▁samostatně	-10.644
pla	-10.6441
sie	-10.6441
▁ludvíka	-10.6451
▁životního	-10.6459
▁silný	-10.646
▁vzduch	-10.6463
pur	-10.6463
▁love	-10.6466
▁kontakt	-10.6466
▁koní	-10.647
▁objevily	-10.6475
▁obřad	-10.6477
▁may	-10.6477
▁plav	-10.6478
▁rozkládá	-10.6479
▁změnu	-10.6483
▁fond	-10.6487
▁zahájena	-10.6489
▁design	-10.649
▁měšťan	-10.6494
▁technologií	-10.6496
▁§	-10.6497
vl	-10.6498
▁kolej	-10.65
▁panel	-10.6502
▁změn	-10.6504
▁dosažení	-10.6507
▁nárok	-10.6508
▁držel	-10.6508
▁zaměstnanců	-10.6509
▁sha	-10.651
▁vodních	-10.6511
▁fran	-10.6511
jedno	-10.6512
▁jack	-10.6512
▁noc	-10.6513
via	-10.6516
▁bezpečnosti	-10.6519
oto	-10.6521
▁historicky	-10.6521
nan	-10.6524
gra	-10.6527
šli	-10.6529
▁článku	-10.653
▁thomas	-10.653
▁sovětské	-10.6531
▁internetu	-10.6531
anda	-10.6535
▁operační	-10.6535
▁pobýval	-10.6537
▁čím	-10.6539
▁zdá	-10.6539
▁chu	-10.6539
▁kruh	-10.6539
▁1916	-10.654
▁vybaven	-10.6541
▁angeles	-10.6542
▁archiv	-10.6544
▁týden	-10.6545
barv	-10.6551
▁formát	-10.6551
▁jozef	-10.6555
▁respektive	-10.6557
▁vládou	-10.6559
▁zdědil	-10.656
▁drží	-10.6561
▁ostrovů	-10.6562
▁vídně	-10.6565
▁42	-10.6576
▁přestoupil	-10.6578
tav	-10.6581
▁klavír	-10.6586
chal	-10.6589
▁posádka	-10.659
aš	-10.659
▁henry	-10.6591
▁měsících	-10.6592
war	-10.6597
▁protéká	-10.6598
▁číslem	-10.66
▁změna	-10.66
▁posil	-10.6602
▁počtem	-10.6603
▁předměty	-10.6604
▁úkolem	-10.6607
▁pochod	-10.661
▁hudba	-10.6612
▁podoby	-10.6612
▁zákaz	-10.6614
▁tro	-10.6615
▁trestu	-10.6617
▁názory	-10.6617
▁vzal	-10.662
▁jedinců	-10.6624
dži	-10.6626
▁zpráva	-10.6631
▁vyžaduje	-10.6633
▁hrabství	-10.6633
▁vojenských	-10.6636
▁stali	-10.6641
sin	-10.6645
▁nástup	-10.6645
▁nacházející	-10.6645
▁užívání	-10.6646
lova	-10.6646
▁vzájemné	-10.6646
▁1901	-10.6649
▁dráha	-10.665
▁zlato	-10.665
▁počasí	-10.665
▁vydán	-10.6652
▁obyvatele	-10.6653
▁státě	-10.6656
▁bohaté	-10.6659
▁válkou	-10.666
▁dokud	-10.666
▁(25	-10.6664
▁půdě	-10.6665
▁činností	-10.6666
lik	-10.6667
▁vynikající	-10.6671
▁týdnů	-10.6672
▁lesa	-10.6675
▁bratislavě	-10.6676
▁studio	-10.6677
sche	-10.6679
▁friedrich	-10.6681
▁vlak	-10.6681
▁tvrzení	-10.6685
▁cla	-10.6686
▁navržen	-10.6688
י	-10.6689
▁stála	-10.6693
▁přežil	-10.6695
izován	-10.6696
▁bílý	-10.6697
▁vlastních	-10.6697
▁španělské	-10.6697
▁ústavní	-10.6698
▁29	-10.6698
elli	-10.6699
▁matkou	-10.67
▁sluneční	-10.6706
▁horách	-10.6708
stran	-10.6709
▁(26	-10.6716
▁navazuje	-10.672
▁komunálních	-10.6723
▁čs	-10.6724
▁námořnictva	-10.6724
▁pobřežní	-10.6724
▁jas	-10.6727
▁podruhé	-10.6728
cvič	-10.6729
▁žluté	-10.6729
▁obecné	-10.6732
▁rozvoji	-10.6732
▁kapitol	-10.6734
nů	-10.674
pís	-10.674
▁tvořen	-10.6741
lab	-10.6741
▁zajetí	-10.6741
▁křídlo	-10.6742
sse	-10.6742
▁opustit	-10.6742
plo	-10.6743
ensis	-10.6744
▁přeprav	-10.6748
tických	-10.6748
fir	-10.6748
▁příprav	-10.675
▁spočívá	-10.675
▁podpory	-10.675
▁zákonem	-10.6753
▁krajiny	-10.6755
▁barva	-10.6757
▁multi	-10.676
▁tradici	-10.6761
▁anny	-10.6767
▁jazyce	-10.6768
▁hitler	-10.6772
jat	-10.6772
enz	-10.6776
▁pokoušel	-10.6781
▁jezer	-10.6781
▁konzervativní	-10.6781
▁vnitra	-10.6781
▁bílá	-10.6782
▁literatuře	-10.679
rav	-10.679
▁závody	-10.6791
▁britského	-10.6792
▁ša	-10.6792
vali	-10.6795
▁olej	-10.6798
▁smlouva	-10.6798
▁hranic	-10.6798
▁kara	-10.68
▁říma	-10.68
▁filmy	-10.68
▁jinou	-10.6803
ban	-10.6803
rát	-10.6805
▁wo	-10.6813
▁některá	-10.6816
ern	-10.6817
▁dostatečně	-10.682
tat	-10.6823
▁uvedené	-10.6825
▁patře	-10.6827
▁tamní	-10.6829
▁scény	-10.683
ckého	-10.683
▁osvobození	-10.6835
▁uznání	-10.6839
vic	-10.684
▁příležitost	-10.684
▁letadel	-10.6842
▁nějaký	-10.6845
▁men	-10.6845
▁představ	-10.6849
hir	-10.6849
▁zabil	-10.6857
▁autorit	-10.6866
▁debutoval	-10.6867
▁oxid	-10.6868
psaný	-10.6869
▁mezinárodního	-10.687
▁přidělen	-10.6871
ologické	-10.6873
▁vektor	-10.6874
vet	-10.6874
cia	-10.6876
lech	-10.6878
▁časem	-10.6882
tky	-10.6883
erem	-10.6884
▁knížete	-10.6885
▁válečné	-10.6886
▁brad	-10.6888
▁aniž	-10.6888
kých	-10.689
▁disciplín	-10.6891
▁rom	-10.6892
▁nadmořsk	-10.6894
▁krystal	-10.6895
▁pozdní	-10.6895
▁soustavy	-10.6895
▁dětské	-10.6896
pět	-10.6897
▁patent	-10.6901
▁hradec	-10.6903
▁záznam	-10.6905
win	-10.6905
kt	-10.6909
▁lov	-10.691
▁napoleon	-10.691
▁senátu	-10.6913
▁malo	-10.6913
▁taneční	-10.6914
ními	-10.6916
▁generála	-10.6917
▁řadou	-10.6917
▁konference	-10.6918
▁představují	-10.6923
▁1897	-10.6924
▁oficiálním	-10.6924
▁schválen	-10.6926
▁uk	-10.6928
šov	-10.6929
cion	-10.6936
indi	-10.6936
▁arcibiskup	-10.6938
bru	-10.6938
▁pozadí	-10.6944
▁adolf	-10.6945
ija	-10.6945
oř	-10.6946
▁jasné	-10.6947
);	-10.6947
morf	-10.6947
▁play	-10.695
▁východo	-10.6951
▁běl	-10.6952
▁nabídl	-10.6955
▁plné	-10.6956
cie	-10.6957
ván	-10.6958
▁rodinou	-10.696
_3	-10.6964
▁šp	-10.6965
▁dvořák	-10.6967
▁oddíl	-10.6969
▁volný	-10.697
▁určené	-10.697
šky	-10.6977
▁expozice	-10.6979
▁oblastní	-10.6981
▁dřívější	-10.6986
▁působící	-10.6989
▁edward	-10.6989
▁bab	-10.6994
▁bon	-10.6996
▁skladeb	-10.6999
izované	-10.7002
▁náleží	-10.7002
▁samozřejmě	-10.7002
▁center	-10.7006
▁vyrábí	-10.7007
▁metal	-10.7008
▁mistra	-10.7013
▁disku	-10.7014
well	-10.7018
▁trůnu	-10.7019
▁natáčení	-10.702
▁dokončen	-10.702
dek	-10.7022
▁královna	-10.7026
▁výstavby	-10.7026
▁špatné	-10.7029
ovič	-10.703
▁slovenský	-10.703
▁fotografií	-10.7032
leb	-10.7033
▁světová	-10.7036
níka	-10.7041
▁marii	-10.7043
▁získává	-10.7043
▁způsoby	-10.7044
▁ruský	-10.7045
▁nápad	-10.7045
iva	-10.7047
▁expedice	-10.7052
lát	-10.7053
▁vstupu	-10.7053
plet	-10.7053
▁komunikaci	-10.7058
▁war	-10.7058
▁následné	-10.7063
▁vybral	-10.707
▁zvířata	-10.7073
▁páry	-10.7077
▁erb	-10.7078
▁stěny	-10.7079
▁vyvinul	-10.7081
▁hudebních	-10.7081
▁nahrazen	-10.7085
▁větví	-10.7089
▁pluku	-10.7089
got	-10.7094
▁níže	-10.7096
▁austrálie	-10.7097
000	-10.7098
▁služba	-10.7102
alo	-10.7103
kají	-10.7104
▁sociálně	-10.7106
▁postupem	-10.7108
▁rozvoje	-10.7108
▁dílů	-10.7114
▁kariéře	-10.7115
▁číny	-10.7118
▁krve	-10.7119
▁vojenský	-10.7119
▁hlad	-10.7126
▁cer	-10.7126
▁1915	-10.7127
nec	-10.7128
▁vystoupil	-10.7129
ňovat	-10.7129
ator	-10.7129
říz	-10.713
ios	-10.7132
▁hradiště	-10.7132
▁stupeň	-10.7133
▁odpovídající	-10.7134
▁anglického	-10.7135
▁jaké	-10.7138
▁křesťanství	-10.7138
▁klas	-10.7138
age	-10.7139
▁37	-10.7142
а	-10.7143
ell	-10.7144
▁setrval	-10.7144
▁izraelské	-10.7144
ckou	-10.7144
▁denně	-10.7144
hrdin	-10.7149
▁medaile	-10.7151
▁nýbrž	-10.7151
▁polí	-10.7154
▁egypt	-10.7154
▁zavražděn	-10.7161
▁kněz	-10.7161
▁dohody	-10.7162
rena	-10.7165
▁tříd	-10.7166
▁mládeže	-10.7167
bek	-10.7167
▁výskytu	-10.7168
pek	-10.7169
▁reakci	-10.7171
▁verzí	-10.7173
▁pruh	-10.7173
▁slovensko	-10.7178
▁vyjádřil	-10.7179
▁urban	-10.7179
▁česky	-10.718
▁dostává	-10.718
kání	-10.7182
▁víc	-10.7182
vala	-10.7186
▁šíření	-10.719
▁poprav	-10.7191
▁počáteční	-10.7192
aceae	-10.7195
ert	-10.7196
ota	-10.7197
▁cyklu	-10.7197
▁spojil	-10.7197
▁čtvrté	-10.7198
▁střed	-10.7198
▁popraven	-10.7198
ploš	-10.7199
use	-10.7203
franc	-10.7204
▁přestavěn	-10.7205
▁administrativní	-10.7206
▁témže	-10.7206
▁přímé	-10.7211
▁bl	-10.7211
▁nikoliv	-10.7216
▁celek	-10.7217
▁japonsku	-10.722
▁kin	-10.7223
šan	-10.7225
▁ráno	-10.7228
▁mí	-10.7228
▁kompletní	-10.7232
pin	-10.7233
▁otázky	-10.7234
▁středisko	-10.7234
▁znamenalo	-10.7235
▁správce	-10.7235
и	-10.7236
▁protest	-10.7237
▁černá	-10.7239
cle	-10.7245
▁dohromady	-10.7247
ip	-10.7248
▁1890	-10.7251
▁zkoušky	-10.7252
▁otevřen	-10.7252
▁místního	-10.7252
▁celo	-10.7253
▁akt	-10.7256
▁nedošlo	-10.7257
▁mluví	-10.7258
▁podnět	-10.7258
▁obsazení	-10.726
▁leg	-10.7262
▁1909	-10.7262
já	-10.7263
stávají	-10.7264
▁ovlivnil	-10.7266
▁struktur	-10.7266
bez	-10.7266
▁částech	-10.7268
▁kas	-10.7269
▁převod	-10.7269
▁reprezentace	-10.727
▁reprezentant	-10.727
▁modré	-10.7273
▁vrstvy	-10.7277
▁kulturních	-10.7279
▁písni	-10.7279
dané	-10.7279
▁argument	-10.728
▁žádnou	-10.728
uss	-10.728
▁přenesen	-10.7282
▁výnos	-10.7285
▁materiálů	-10.729
▁plány	-10.7291
novi	-10.7295
ány	-10.7296
▁uvězněn	-10.7298
myšlen	-10.73
▁významně	-10.7302
▁příjem	-10.7302
▁silnici	-10.7302
▁nutno	-10.7304
▁nijak	-10.7304
link	-10.7306
▁barvu	-10.7309
▁znal	-10.7311
▁hřiště	-10.7312
▁1903	-10.7314
▁island	-10.7315
▁listu	-10.7317
▁individuální	-10.7317
▁pracovala	-10.7321
šti	-10.7322
▁metra	-10.7322
▁úrovně	-10.7323
▁koš	-10.7324
▁prováděn	-10.7329
▁mládež	-10.7329
▁obnovení	-10.7333
▁lesů	-10.7334
▁prošel	-10.7334
vky	-10.7335
▁1904	-10.7337
▁socialistické	-10.7337
▁polsko	-10.7338
▁kódu	-10.734
▁výstav	-10.7344
pev	-10.735
▁mistrů	-10.7353
▁ondřej	-10.7353
lů	-10.7358
▁vlaky	-10.7359
lka	-10.7361
pit	-10.7365
dil	-10.7365
р	-10.7367
▁útočník	-10.7368
hyb	-10.7369
▁hub	-10.737
▁obsahu	-10.737
atlant	-10.7371
▁souladu	-10.7372
▁sloužit	-10.7372
▁sbírka	-10.7372
ori	-10.7374
▁články	-10.7377
▁75	-10.7381
▁připravil	-10.7382
▁pohlavní	-10.7384
bat	-10.7386
▁scénář	-10.7386
portu	-10.7388
chází	-10.7389
heim	-10.7389
▁paní	-10.7391
▁parní	-10.7391
▁ruského	-10.7392
kově	-10.7392
▁správa	-10.7392
▁chan	-10.7395
▁kořeny	-10.7395
▁ok	-10.7398
▁nížin	-10.7399
▁záměr	-10.74
▁stránky	-10.7401
▁dav	-10.7403
zná	-10.7403
▁čer	-10.7404
▁anděl	-10.7406
▁japonské	-10.7409
▁důl	-10.7409
▁podpořil	-10.7409
▁vystupuje	-10.7409
▁oceán	-10.7412
eckého	-10.7414
▁knížectví	-10.7414
▁rolí	-10.7416
ill	-10.7421
▁větších	-10.7421
▁zobrazení	-10.7422
▁vyhlášen	-10.7423
ologii	-10.7423
▁nemocnici	-10.7424
▁primární	-10.7425
▁operní	-10.7426
▁velitele	-10.743
▁chi	-10.7434
▁německou	-10.7438
tribu	-10.7438
▁konfliktu	-10.7439
sia	-10.7443
▁stáří	-10.7447
▁natolik	-10.7452
▁obnoven	-10.7454
▁sur	-10.7456
▁předměstí	-10.7456
▁hy	-10.7458
▁institutu	-10.746
▁boleslav	-10.7461
aný	-10.7461
▁kolonie	-10.7462
nách	-10.7463
▁ing	-10.7464
▁nejmladší	-10.7468
ovská	-10.7468
▁tank	-10.747
▁píše	-10.7473
▁znaků	-10.7473
▁myšlenky	-10.7476
▁rozsah	-10.7476
nicích	-10.7477
▁národních	-10.7477
▁nacházela	-10.7478
▁institucí	-10.748
▁pokrok	-10.7482
▁ženské	-10.7482
▁starost	-10.7482
▁případů	-10.7483
ste	-10.7483
hard	-10.7484
▁zimě	-10.7488
▁nacházel	-10.749
▁nejvyššího	-10.7491
▁umožňují	-10.7491
lán	-10.7492
▁budovu	-10.7493
▁rám	-10.7493
▁mez	-10.7494
▁royal	-10.7501
▁34	-10.7501
▁úzce	-10.7504
▁stranou	-10.7504
▁počítač	-10.7505
▁letadlo	-10.7505
para	-10.7506
▁rozvod	-10.7509
▁martina	-10.751
boč	-10.751
“).	-10.751
▁polní	-10.751
▁západního	-10.7514
▁železnice	-10.7516
razí	-10.7522
▁namísto	-10.7522
▁veřejného	-10.7523
▁politice	-10.7523
▁zkušební	-10.7527
▁začínal	-10.7527
▁řídil	-10.7527
▁nejlepším	-10.7527
vár	-10.753
▁prohrál	-10.7532
nějším	-10.7533
dh	-10.7538
▁městských	-10.7538
▁hradci	-10.7544
▁tar	-10.7544
druh	-10.7545
▁živ	-10.7547
▁nejlepších	-10.7551
dět	-10.7551
▁zaměstnání	-10.7553
ordin	-10.7554
▁vévoda	-10.7555
▁anebo	-10.7556
▁rychlé	-10.7556
eni	-10.7556
▁čtvrtý	-10.7558
▁dluh	-10.7558
▁31	-10.7559
▁filosof	-10.7564
▁college	-10.7565
tul	-10.7566
▁posledního	-10.7568
rb	-10.7569
▁tah	-10.7569
vát	-10.757
▁principu	-10.7572
▁prováděl	-10.7573
▁považoval	-10.7576
▁orient	-10.7579
▁utrpěl	-10.7579
bon	-10.7579
ony	-10.7579
▁zničil	-10.758
▁prosadil	-10.7583
▁pramen	-10.7584
▁pobyt	-10.7587
▁vůdce	-10.7588
bis	-10.7589
nějších	-10.7591
elná	-10.7591
▁článků	-10.7593
▁dostali	-10.7596
iana	-10.7602
▁spojuje	-10.7602
▁provdala	-10.7603
▁1895	-10.7604
▁hornin	-10.7605
4.	-10.7607
▁královny	-10.7608
▁způsobu	-10.7609
▁zastavil	-10.761
▁pokračovala	-10.7613
▁politického	-10.7614
▁pojmenování	-10.7615
▁svoje	-10.7616
▁1870	-10.7621
děj	-10.7623
▁vyz	-10.7623
lyn	-10.7624
▁1902	-10.7625
▁pet	-10.7627
▁hlavu	-10.7628
▁zasloužil	-10.7631
▁každou	-10.7631
▁1896	-10.7633
▁plzni	-10.7636
▁okolních	-10.7637
▁rukopis	-10.7638
álních	-10.764
▁kamarád	-10.7641
▁tón	-10.7641
sor	-10.7641
▁patron	-10.7646
▁snímek	-10.7651
▁dojít	-10.7651
▁nabídku	-10.7655
▁38	-10.7657
▁vrchu	-10.7658
▁nástrojů	-10.7659
▁major	-10.7659
▁vyloučen	-10.7663
▁diplomat	-10.7667
▁uzavření	-10.7667
▁bezpečnost	-10.7667
▁tratě	-10.7668
▁sídla	-10.767
▁1898	-10.7671
▁(28	-10.7673
▁bern	-10.7673
е	-10.7673
ique	-10.7677
▁otevřel	-10.7681
chen	-10.7684
▁šat	-10.7684
▁výstavbě	-10.7684
▁700	-10.7687
▁velení	-10.7687
▁průměr	-10.7687
▁usadil	-10.7688
▁pařížské	-10.7689
▁kněž	-10.7689
leté	-10.769
▁těžce	-10.769
▁orgány	-10.7692
▁́	-10.7694
mr	-10.7694
cest	-10.7695
▁býval	-10.7697
▁senátor	-10.7697
α	-10.7698
▁vladislav	-10.7698
▁bou	-10.7699
cal	-10.7702
▁navzájem	-10.7703
▁ruce	-10.7708
vice	-10.7711
ting	-10.7711
jen	-10.7711
):	-10.7713
▁national	-10.7713
▁spadá	-10.7715
vok	-10.7717
▁politickou	-10.7718
▁hodnost	-10.772
letá	-10.772
ini	-10.7721
▁trub	-10.7722
▁schodiště	-10.7722
▁ohledu	-10.7723
▁městu	-10.7723
▁dvaceti	-10.7723
▁izraele	-10.7724
▁vyučoval	-10.7727
▁vojáky	-10.7728
▁rez	-10.7728
▁kalich	-10.773
lom	-10.7731
▁fau	-10.7732
mond	-10.7735
větr	-10.7735
até	-10.7735
▁rozhodnuto	-10.7738
▁skutečné	-10.7738
▁přání	-10.7739
▁(27	-10.774
▁lékařské	-10.7741
▁zajistit	-10.7744
rozené	-10.7744
loup	-10.7744
▁znaku	-10.7745
▁vyjádření	-10.7752
▁filtr	-10.7752
▁důležitým	-10.7753
elný	-10.7754
▁skladatele	-10.7756
▁tradičně	-10.7756
▁přítomnosti	-10.7756
▁vlasti	-10.7761
▁dítěte	-10.7761
▁fridrich	-10.7761
▁manžela	-10.7761
3,	-10.7762
▁povolání	-10.7762
vrácen	-10.7763
▁univerzita	-10.7764
▁planety	-10.7765
čat	-10.7766
▁žánr	-10.7766
▁podaří	-10.7767
▁dvanácti	-10.7768
ivo	-10.7769
kre	-10.7772
▁tlaku	-10.7773
ith	-10.7775
ory	-10.7776
rig	-10.7777
▁debut	-10.7777
mobil	-10.7778
ura	-10.7778
▁nařízení	-10.7778
▁miliony	-10.7778
čsl	-10.7782
▁neroz	-10.7782
enou	-10.7782
kování	-10.7784
▁dřevěný	-10.7785
▁srovnání	-10.7785
▁nebe	-10.7785
–15	-10.7787
rání	-10.7789
▁odmítá	-10.779
back	-10.7793
▁povodí	-10.7793
▁třídě	-10.7794
▁čtvrtfinále	-10.7795
▁drak	-10.7795
▁ohledně	-10.7795
▁moskvě	-10.7795
▁vykonával	-10.7797
▁vydáno	-10.7797
▁dělení	-10.7798
▁myšlení	-10.7798
▁způsobuje	-10.7799
▁konstrukci	-10.78
▁antonína	-10.7801
▁rodinné	-10.7803
▁nezávislé	-10.7805
▁(29	-10.7805
▁celku	-10.7808
▁mobilní	-10.7808
▁právník	-10.7808
jas	-10.7809
▁otci	-10.781
▁účel	-10.781
cení	-10.7811
▁třeb	-10.7811
▁účinky	-10.7814
▁region	-10.7816
▁obviněn	-10.7818
▁severovýchodně	-10.7819
▁opakovaně	-10.7819
▁osoba	-10.7821
▁pacient	-10.7824
ord	-10.7826
oidní	-10.7826
šil	-10.7826
▁mach	-10.7827
▁janem	-10.7828
▁jiho	-10.7833
wiki	-10.7833
čte	-10.7834
▁sezony	-10.7835
hostin	-10.7836
▁zrušena	-10.7836
ans	-10.7838
▁zákony	-10.7839
▁řím	-10.7839
hrán	-10.7845
▁cel	-10.7847
lam	-10.7848
potřeb	-10.7848
▁květenství	-10.7849
haj	-10.7851
▁johna	-10.7852
▁originální	-10.7858
▁péči	-10.7858
▁praktik	-10.7859
mos	-10.7861
▁položen	-10.7861
▁planet	-10.7862
▁používané	-10.7863
idy	-10.7864
▁cap	-10.7864
▁len	-10.7869
ovanými	-10.787
luh	-10.787
▁chybí	-10.7871
int	-10.7871
▁financí	-10.7873
lot	-10.7874
▁bohem	-10.7875
▁velkém	-10.7876
▁charakteru	-10.788
▁nasazen	-10.788
▁určen	-10.7883
▁tajné	-10.7885
▁souvisí	-10.7887
▁projektů	-10.789
▁politiku	-10.7892
▁zlepšení	-10.7895
sing	-10.7897
níkem	-10.7898
▁nejmenší	-10.7903
▁kněze	-10.7905
čná	-10.7906
▁samostatný	-10.7906
nom	-10.7907
▁státním	-10.7908
kra	-10.7909
tickou	-10.7911
▁motivy	-10.7916
▁bolest	-10.7917
▁chov	-10.7923
▁vlivu	-10.7926
něji	-10.7931
▁programy	-10.7933
tina	-10.7934
▁hmot	-10.7936
far	-10.7937
▁proběhlo	-10.7939
▁místním	-10.794
kého	-10.7942
▁nápis	-10.7943
▁přestal	-10.7946
▁opatřen	-10.7947
▁bub	-10.7948
▁vyhlášení	-10.7949
poz	-10.795
vál	-10.7951
▁metru	-10.7953
▁house	-10.7954
▁čtyřmi	-10.7956
▁alois	-10.7957
eng	-10.796
▁rozhodující	-10.796
▁pravidel	-10.7961
▁records	-10.7961
▁produkci	-10.7961
▁zajištění	-10.7963
▁zahájen	-10.7964
▁miliard	-10.7965
▁pokračovat	-10.7968
▁stavbou	-10.7969
▁všemi	-10.7974
▁48	-10.7974
▁svobod	-10.7974
rec	-10.7974
elle	-10.7975
▁církvi	-10.7976
▁obklopen	-10.7976
▁použity	-10.7983
▁voják	-10.7985
▁franz	-10.7985
ander	-10.7987
▁popel	-10.7988
rén	-10.7989
▁brány	-10.799
▁kamen	-10.7991
▁koruna	-10.7991
směr	-10.7992
▁trojice	-10.7993
stva	-10.7994
▁obsažen	-10.7996
rych	-10.7998
▁oceněn	-10.7998
▁green	-10.7998
▁nejdůležitější	-10.8001
▁autoři	-10.8003
▁atom	-10.8003
▁zbarvení	-10.8005
gre	-10.8007
ong	-10.8008
▁hledání	-10.801
▁cyklus	-10.8011
▁denní	-10.8011
▁německém	-10.8011
▁anglické	-10.8012
-15	-10.8013
▁miloš	-10.8016
▁navázal	-10.8017
▁vědomí	-10.8018
▁vydavatelství	-10.8026
▁lind	-10.8028
▁pocit	-10.8032
▁oceánu	-10.8033
▁meta	-10.8033
oru	-10.8034
▁kru	-10.8035
▁unikátní	-10.8035
ktor	-10.8036
▁vět	-10.8038
lc	-10.8038
▁bel	-10.8038
▁sílu	-10.8041
▁turnaji	-10.8042
▁modely	-10.8044
▁simon	-10.8046
německy	-10.805
cházejí	-10.8051
gro	-10.8057
wen	-10.8057
▁přesunul	-10.8058
▁tisíce	-10.8059
▁spory	-10.806
▁prohlášení	-10.8063
▁2,5	-10.8066
""	-10.8069
▁východu	-10.8069
▁příběhu	-10.8069
▁zařadil	-10.807
▁evangel	-10.8073
uherské	-10.8074
▁krista	-10.8076
▁květin	-10.8077
▁zastoupen	-10.8079
▁výrazné	-10.8082
▁sítí	-10.8084
vní	-10.8084
▁zůstalo	-10.8085
▁vesnic	-10.8086
▁řecké	-10.8086
▁levé	-10.8087
▁severozápadní	-10.8088
▁menšin	-10.809
▁maxim	-10.8094
▁určitou	-10.8098
▁palm	-10.8099
sah	-10.8102
▁monte	-10.8105
▁banky	-10.8105
▁poskytl	-10.8106
▁hyper	-10.8108
=	-10.8108
▁vystaven	-10.8109
▁omezen	-10.8109
▁firmou	-10.811
▁následuje	-10.8113
▁růstu	-10.8113
avé	-10.8117
bahn	-10.8118
▁zahrada	-10.8118
tele	-10.8119
▁úřední	-10.812
sco	-10.8122
▁ploše	-10.8123
▁aplikací	-10.8125
▁washington	-10.8128
regul	-10.813
▁skladba	-10.8134
▁závisí	-10.8135
▁wta	-10.8136
▁čistě	-10.8136
padne	-10.8137
▁důkaz	-10.8137
▁úmrtí	-10.814
▁rodičů	-10.814
▁lesích	-10.8141
▁požáru	-10.8141
▁1891	-10.8143
▁rozkaz	-10.8144
▁výjimečně	-10.8147
▁vzájemně	-10.815
▁komplexní	-10.8151
▁biskupa	-10.8152
▁přízemí	-10.8155
▁tvorba	-10.8156
přes	-10.8158
▁bůh	-10.8163
▁past	-10.8163
▁sekund	-10.8165
▁nazýván	-10.8166
hlí	-10.8167
▁lat	-10.8167
▁založeno	-10.817
úr	-10.8174
▁školách	-10.8176
▁cestující	-10.8177
▁marek	-10.818
▁hans	-10.818
lum	-10.818
▁jezero	-10.8181
ont	-10.8184
▁působila	-10.8184
▁udržel	-10.8186
▁medi	-10.819
▁soutěží	-10.8191
▁institut	-10.8192
▁tehdejšího	-10.8193
sad	-10.8194
▁nejvýše	-10.8196
▁varianty	-10.8196
▁doslova	-10.8199
▁ger	-10.8204
▁pevné	-10.8204
▁politický	-10.8206
5.	-10.8207
▁kamene	-10.8207
eru	-10.8214
▁čtyřhře	-10.8216
▁(24	-10.8216
";	-10.8218
▁studenti	-10.8219
tec	-10.822
brán	-10.822
▁(21	-10.8221
▁originále	-10.8222
▁změněn	-10.8223
▁vedoucím	-10.8223
▁poštovní	-10.8226
▁ježíš	-10.8228
mez	-10.823
▁fondu	-10.8231
ával	-10.8231
▁microsoft	-10.8231
▁poz	-10.8232
▁otto	-10.8233
▁sál	-10.8233
nést	-10.8234
▁přírodních	-10.8234
▁vybudování	-10.8234
▁náboj	-10.8237
▁prohlášen	-10.8238
▁respekt	-10.8239
▁propojen	-10.824
▁finančních	-10.8242
aná	-10.8242
tonu	-10.8245
-10	-10.8248
▁pověst	-10.8249
▁stojící	-10.825
▁zanikl	-10.8254
mur	-10.826
▁šar	-10.8263
slep	-10.8263
▁snížen	-10.8264
▁cal	-10.827
▁architekta	-10.827
▁trpěl	-10.8272
▁zápasu	-10.8273
nky	-10.8273
▁gui	-10.8278
sal	-10.8279
gam	-10.8282
▁kancelář	-10.8283
lák	-10.8284
▁poznání	-10.8286
itz	-10.8286
▁prodloužení	-10.8287
▁ostrava	-10.8288
ney	-10.8289
▁kostelem	-10.829
ün	-10.8291
volí	-10.8294
▁reliéf	-10.8294
▁gor	-10.8296
▁výklad	-10.8298
▁alexandra	-10.8298
▁minutě	-10.8306
▁žáků	-10.8307
has	-10.8307
▁torpéd	-10.8307
▁táboře	-10.8307
▁mláďata	-10.8309
▁(22	-10.8311
▁podání	-10.8312
ložil	-10.8313
▁rozdělil	-10.8314
▁ženu	-10.8314
▁dospěl	-10.8314
hlá	-10.8315
▁soukromé	-10.8316
▁jihozápadní	-10.8317
stin	-10.8318
řez	-10.8319
enu	-10.8322
▁zřízen	-10.8323
čan	-10.8323
▁baron	-10.8325
▁pokryt	-10.8325
▁zůstaly	-10.8325
▁samotného	-10.8325
▁santa	-10.8325
▁ukončen	-10.8327
▁zbraň	-10.8328
louč	-10.8328
ráz	-10.833
▁třetího	-10.8331
▁německy	-10.8332
▁proslavil	-10.8333
bie	-10.8335
▁národa	-10.8337
▁zachování	-10.8338
▁docházelo	-10.8338
▁násilí	-10.8338
▁světových	-10.8342
▁sezónu	-10.8346
▁alternativní	-10.8347
▁hroz	-10.835
▁vlastností	-10.8351
▁kmeny	-10.8353
▁čemuž	-10.8354
▁tisku	-10.8354
▁španělsku	-10.8354
▁tatra	-10.8354
áky	-10.8354
luc	-10.8355
-6	-10.8363
▁hill	-10.8363
▁skrze	-10.8364
▁lok	-10.8365
▁nalezen	-10.8368
▁povinnost	-10.8368
▁desítky	-10.8369
▁nominován	-10.8369
▁nikoli	-10.8369
▁char	-10.8369
▁oddělen	-10.8371
▁vidí	-10.8373
ór	-10.8374
▁scén	-10.8375
▁dost	-10.8375
▁mini	-10.8376
rh	-10.8377
▁ráz	-10.8377
▁dvorní	-10.8378
▁nějakou	-10.8379
▁minimálně	-10.8379
▁prodeje	-10.8379
▁sud	-10.838
vač	-10.838
cor	-10.8381
▁poměru	-10.8381
▁1885	-10.8382
▁dvacet	-10.8383
▁indii	-10.8383
množ	-10.8386
ávat	-10.8387
▁pozemní	-10.8388
později	-10.8388
▁eva	-10.839
▁samci	-10.8393
▁desítek	-10.8395
pf	-10.8396
▁rychlý	-10.8405
naté	-10.8408
▁you	-10.841
ografie	-10.841
▁přihlásil	-10.841
nických	-10.8412
▁poutní	-10.8413
▁pražský	-10.8413
hof	-10.8414
▁kapitul	-10.8416
vít	-10.842
vir	-10.842
▁natočen	-10.8421
▁vedou	-10.8422
▁klášterní	-10.8425
▁červený	-10.8425
dár	-10.843
▁olomouc	-10.8432
▁kdyby	-10.8433
stor	-10.8434
▁mladá	-10.8435
▁karty	-10.8438
▁škod	-10.8438
▁psy	-10.844
▁vyrůstají	-10.8441
itelné	-10.8442
válečný	-10.8444
▁uvedení	-10.8445
bry	-10.8445
▁zemský	-10.8445
▁nástupce	-10.8446
▁ocas	-10.8447
ovní	-10.8447
sym	-10.845
nesl	-10.8452
▁přivedl	-10.8454
▁zálivu	-10.8458
▁1867	-10.846
▁radnice	-10.8463
▁potřebné	-10.8465
ovitý	-10.8467
▁160	-10.8469
▁kdysi	-10.8471
▁široce	-10.8472
▁zemských	-10.8475
▁hut	-10.8477
▁malby	-10.8477
="	-10.8479
▁pomník	-10.848
▁hel	-10.848
pouští	-10.8481
čce	-10.8481
▁dorazil	-10.8482
▁kras	-10.8484
▁maršál	-10.8489
hlás	-10.8489
▁sovětský	-10.8492
▁farnost	-10.8495
▁němců	-10.8496
▁pěstování	-10.8496
▁armádní	-10.8497
▁zřízena	-10.8497
▁zákonů	-10.8498
dža	-10.8499
sim	-10.85
▁odstranění	-10.8501
▁rodů	-10.8503
▁děje	-10.8505
▁zvyšuje	-10.8508
▁větším	-10.851
stál	-10.8511
▁silnější	-10.8514
▁provincii	-10.8514
▁kláves	-10.8517
▁vévody	-10.8524
▁zasvěcen	-10.8525
▁podoba	-10.8526
“"	-10.8526
▁angažoval	-10.8529
▁kurt	-10.8532
▁kož	-10.8532
▁opeře	-10.8536
▁poslán	-10.8538
▁označen	-10.8539
▁základy	-10.854
▁vrstev	-10.854
▁olympijské	-10.8542
▁vytvořila	-10.8546
▁známých	-10.8546
bod	-10.8548
▁gla	-10.855
▁posun	-10.8551
▁předmětů	-10.8552
dání	-10.8553
▁nohy	-10.8553
▁ham	-10.8553
▁brun	-10.8554
▁fakultu	-10.8554
▁majitelem	-10.8555
▁díly	-10.8555
▁pohon	-10.8558
▁1899	-10.8559
▁revoluční	-10.8559
▁významná	-10.856
▁mnozí	-10.8561
▁stejnojmenné	-10.8561
▁čaj	-10.8564
▁trn	-10.8564
▁angličtiny	-10.8566
▁poškozen	-10.8567
▁sekce	-10.8568
▁55	-10.8569
▁délku	-10.8572
ric	-10.8573
padá	-10.8574
▁spis	-10.8574
▁mari	-10.8575
oli	-10.8576
▁hlavou	-10.8576
▁kritiky	-10.8576
▁pozemky	-10.8577
klas	-10.8579
ložit	-10.858
▁církví	-10.8582
▁letectva	-10.8582
▁opak	-10.8586
▁samostatnou	-10.8587
škol	-10.8587
▁cre	-10.8587
▁zprvu	-10.8587
▁pozdně	-10.8588
▁základním	-10.8588
kovice	-10.8589
▁reg	-10.8589
▁vytváření	-10.8594
pout	-10.8595
ax	-10.8596
▁naposledy	-10.8598
▁učinil	-10.8598
▁vyšetřování	-10.8601
▁sklon	-10.8603
▁kabel	-10.8603
▁dvouhře	-10.8604
▁hydro	-10.8606
▁mol	-10.8607
▁královského	-10.8607
▁úsilí	-10.8608
▁moč	-10.8609
▁příčinou	-10.861
soci	-10.8613
šit	-10.8613
▁psát	-10.8615
▁básní	-10.8617
▁odlišné	-10.8619
kovy	-10.8619
▁tvrdil	-10.862
gs	-10.862
▁dirigent	-10.8624
▁viděl	-10.8624
klon	-10.8624
oper	-10.8625
sť	-10.8626
▁jízdní	-10.8626
▁zprávu	-10.8629
ose	-10.863
nera	-10.863
▁známým	-10.8633
▁chemické	-10.8634
▁pokusy	-10.8635
▁sun	-10.8639
▁brněnské	-10.8639
istický	-10.8642
▁srst	-10.8642
▁pořad	-10.8646
▁index	-10.8646
▁tet	-10.865
fla	-10.865
▁mezinárodním	-10.8651
▁synové	-10.8651
.“"	-10.8653
díl	-10.8653
!"	-10.8654
▁not	-10.8655
ness	-10.8656
dřev	-10.8658
ima	-10.8659
ese	-10.8659
zim	-10.8661
kryl	-10.8665
▁úvodní	-10.8668
alis	-10.867
▁gro	-10.8671
čné	-10.8671
▁rudé	-10.8671
čnou	-10.8673
▁nádrže	-10.8673
▁zlatou	-10.8675
▁hr	-10.8676
▁neúspěšně	-10.8677
zon	-10.8677
▁kanceláře	-10.8677
gli	-10.8681
▁mk	-10.8682
▁kovář	-10.8682
▁zlín	-10.8684
▁sídliště	-10.8687
▁armádu	-10.8691
▁patřily	-10.8692
▁rezignoval	-10.8693
▁podstatně	-10.8693
▁počest	-10.8693
▁north	-10.8698
▁vytvářejí	-10.8699
sol	-10.8699
integr	-10.8702
▁polovina	-10.8703
▁obsahoval	-10.8703
▁lukáš	-10.8704
▁zastupitel	-10.8705
fel	-10.8708
▁cas	-10.871
▁důstojník	-10.8711
jed	-10.8713
▁ženatý	-10.8713
▁filmech	-10.8714
▁češtině	-10.8714
▁překladatel	-10.8714
▁domácím	-10.8715
ort	-10.8715
▁dominantní	-10.8721
▁65	-10.8723
hem	-10.8724
▁jezdí	-10.8724
▁přístupu	-10.8725
▁léčiv	-10.873
▁rodinu	-10.873
▁vedly	-10.8734
kva	-10.8735
▁formálně	-10.8735
▁básně	-10.8735
▁slavnostní	-10.8736
▁neměla	-10.8737
▁papeže	-10.8738
pre	-10.8739
dříve	-10.874
▁sklo	-10.874
rob	-10.8741
ovač	-10.8741
▁odmítal	-10.8744
▁textů	-10.8744
▁týmů	-10.8744
▁vytvořen	-10.8746
▁ad	-10.8747
zejména	-10.8747
▁ip	-10.8748
▁nesou	-10.8751
▁vzoru	-10.8751
▁dostupné	-10.8752
▁palubě	-10.8754
▁udělen	-10.8754
▁bernard	-10.8756
gur	-10.8757
fil	-10.8758
▁dílu	-10.8761
▁kaš	-10.8762
kládat	-10.8763
tové	-10.8763
phil	-10.8763
▁ostro	-10.8764
▁koruny	-10.8765
▁španělský	-10.8766
▁taková	-10.8769
▁psycho	-10.877
lehl	-10.8772
▁snaha	-10.8773
▁stabilní	-10.8778
letou	-10.8778
▁postavu	-10.8783
▁demokracie	-10.8783
▁projev	-10.8783
▁děkan	-10.8788
rick	-10.879
▁ukázalo	-10.8791
▁takových	-10.8793
▁politicky	-10.8794
▁přítel	-10.8795
▁malého	-10.8799
moc	-10.8799
...)	-10.8799
▁předchozích	-10.8799
př	-10.8801
ěn	-10.8802
hodno	-10.8802
▁group	-10.8805
▁okres	-10.8806
lach	-10.8807
▁připsal	-10.8812
light	-10.8813
▁modern	-10.8813
▁témat	-10.8813
▁junior	-10.8814
▁nálezy	-10.8816
▁comp	-10.8817
▁autobus	-10.8817
▁zábav	-10.882
▁slovenského	-10.882
tura	-10.882
▁císařem	-10.882
▁síla	-10.8821
▁jazykem	-10.8823
▁kněží	-10.8823
▁molekul	-10.8824
▁rozsáhlý	-10.8825
letěl	-10.8827
▁varianta	-10.8829
▁mnichov	-10.8832
▁pojmenován	-10.8833
▁fra	-10.8835
▁terénu	-10.8836
▁vlastnil	-10.8837
▁dobách	-10.8838
▁pur	-10.8838
▁ps	-10.8839
▁převeden	-10.8839
▁redaktor	-10.8841
▁slovy	-10.8843
▁1873	-10.8844
▁původem	-10.8847
▁službě	-10.8848
táč	-10.885
tter	-10.885
anne	-10.885
táhl	-10.885
▁považovat	-10.8853
enské	-10.8855
▁zasedání	-10.8859
▁gold	-10.8859
▁průběh	-10.8862
▁byt	-10.8864
▁obranu	-10.8865
izací	-10.8865
▁peč	-10.8866
šim	-10.8866
▁vlny	-10.8866
▁umí	-10.8868
▁chomutov	-10.8869
eti	-10.8869
zar	-10.8869
▁podpora	-10.887
burgu	-10.887
▁vzniklé	-10.887
▁nástupu	-10.8872
▁imp	-10.8873
▁novější	-10.8874
▁kanadě	-10.8875
▁herečka	-10.8876
▁publikován	-10.8876
▁nadace	-10.8878
▁monarchie	-10.888
cové	-10.8882
▁profesora	-10.8882
▁provedena	-10.8882
▁mou	-10.8883
▁zvané	-10.8889
▁cílů	-10.889
▁vyřazen	-10.8898
šku	-10.8898
▁kůže	-10.8898
trav	-10.8898
▁komor	-10.89
▁poslanců	-10.8902
první	-10.8903
▁pana	-10.8903
▁španělsko	-10.8904
inter	-10.8907
▁živí	-10.8907
▁chorob	-10.8909
▁spe	-10.8909
dlo	-10.8911
▁prodán	-10.8913
▁zakoupil	-10.8914
▁fk	-10.8916
▁háj	-10.8917
▁zóny	-10.8921
▁filozof	-10.8923
▁rozdělena	-10.8924
▁lep	-10.8925
▁společného	-10.8926
▁(23	-10.8926
▁kurz	-10.8928
▁lásky	-10.893
pracov	-10.893
▁klid	-10.893
jímá	-10.8932
▁znakem	-10.8933
▁žila	-10.8934
▁statek	-10.8935
▁městský	-10.8935
▁cizin	-10.8935
vej	-10.8935
dej	-10.8937
▁severního	-10.8938
▁internet	-10.8942
▁deník	-10.8944
▁historického	-10.8944
6.	-10.8945
▁kvality	-10.8945
▁(30	-10.8945
ר	-10.8951
▁maso	-10.8951
ure	-10.8952
▁zásad	-10.8955
▁značný	-10.8956
eck	-10.8956
ovna	-10.8961
▁pozorovatel	-10.8963
▁noviny	-10.8964
▁autonomní	-10.8967
▁dlouhodobé	-10.8967
▁py	-10.8969
▁třikrát	-10.8969
▁vyznání	-10.8972
cp	-10.8977
organ	-10.8979
▁londýn	-10.8979
▁orgánů	-10.8984
dos	-10.8986
▁smith	-10.8987
▁hřbet	-10.899
▁tolik	-10.8992
zdrav	-10.8993
▁správě	-10.8994
inger	-10.8996
▁rozhodli	-10.8997
lys	-10.9001
▁určení	-10.9001
ston	-10.9004
▁konflikt	-10.9005
▁jeskyně	-10.9006
anta	-10.9006
в	-10.9007
hání	-10.9008
tedy	-10.9009
▁hnědé	-10.9013
▁obsazen	-10.9014
cům	-10.9017
▁vojtěch	-10.9019
▁odboj	-10.9021
sar	-10.9022
▁rozmezí	-10.9027
▁koncertní	-10.9029
▁přišli	-10.9029
▁projekty	-10.903
▁jedinci	-10.9033
▁tvořena	-10.9035
▁rytíř	-10.9035
▁náhle	-10.9037
▁plemeno	-10.9041
lina	-10.9042
východ	-10.9043
▁brána	-10.9044
▁osobně	-10.9045
cra	-10.9045
all	-10.9046
ture	-10.9046
sign	-10.9049
&	-10.9049
tak	-10.9052
▁křesťanské	-10.9055
▁studenty	-10.9055
▁novák	-10.9057
▁operací	-10.9057
▁vhodný	-10.9058
▁firem	-10.9058
syn	-10.9061
bes	-10.9062
drob	-10.9062
íček	-10.9062
▁čechy	-10.9069
eau	-10.907
▁hradě	-10.907
bral	-10.9071
▁krátký	-10.9071
▁světový	-10.9073
▁následovala	-10.9073
lf	-10.9076
právní	-10.9076
▁koncepce	-10.9077
tle	-10.9077
▁obecná	-10.9078
▁současný	-10.9078
žívá	-10.9079
▁univerzitní	-10.9079
▁stín	-10.908
▁hall	-10.9081
sur	-10.9083
▁...	-10.9084
ovitě	-10.9085
▁dlouhých	-10.9088
ražen	-10.9088
▁přestěhovala	-10.909
▁oliv	-10.9092
▁výkonem	-10.9093
▁projevuje	-10.9094
▁che	-10.9094
taj	-10.9098
▁ovoce	-10.9101
▁zveřejněn	-10.9102
▁řecko	-10.9103
▁televizi	-10.911
stoupit	-10.911
vka	-10.9111
▁určit	-10.9111
▁rozpadu	-10.9112
▁autora	-10.9112
iče	-10.9112
▁vydali	-10.9113
tó	-10.9114
▁jedince	-10.9116
▁nedokázal	-10.9116
▁energii	-10.9117
▁pozdějších	-10.9118
▁jedenáct	-10.9121
▁stanoviště	-10.9121
▁keř	-10.9123
▁živé	-10.9124
▁demo	-10.9126
okr	-10.9126
ačních	-10.9127
▁poruch	-10.9127
▁záležitosti	-10.9128
▁vyznamenání	-10.913
uh	-10.9131
▁všechno	-10.9131
▁datum	-10.9132
rka	-10.9132
▁používány	-10.9133
▁šel	-10.9134
-20	-10.9135
▁včel	-10.9135
▁fyzikální	-10.9135
čar	-10.9137
▁šéf	-10.9138
ette	-10.9139
rim	-10.914
nad	-10.914
▁průměrná	-10.9141
▁zaznamenán	-10.9144
▁výběru	-10.9147
▁přehled	-10.9148
▁závodů	-10.9148
▁osobnost	-10.9149
▁nechá	-10.9149
▁řekne	-10.9151
▁časopise	-10.9152
ink	-10.9152
▁užíval	-10.9156
▁okraje	-10.9156
▁1500	-10.9157
▁michel	-10.9159
▁skončilo	-10.9159
tiky	-10.9159
cti	-10.9163
▁hudbě	-10.9165
ira	-10.9167
kří	-10.9168
▁scéně	-10.9168
▁staršího	-10.9169
▁svoboda	-10.9173
▁sav	-10.9173
bri	-10.9173
▁řídící	-10.9174
▁továrny	-10.9176
lup	-10.9177
▁portrét	-10.9177
▁zim	-10.9181
▁vyrůstal	-10.9182
▁umělce	-10.9184
ington	-10.9184
▁potenciál	-10.9184
československého	-10.9186
▁obývají	-10.9189
čel	-10.9189
▁zeman	-10.9189
▁lang	-10.919
▁arabské	-10.919
▁mart	-10.9192
▁městskou	-10.9193
▁ferdinanda	-10.9193
kot	-10.9193
▁osobních	-10.9196
ies	-10.9196
▁all	-10.9196
▁jam	-10.9202
dre	-10.9203
▁viz	-10.9204
▁obrovské	-10.9204
▁mozku	-10.9204
▁sester	-10.9205
▁naší	-10.9206
▁kořen	-10.9206
▁harry	-10.9209
▁varhany	-10.9209
bezpe	-10.921
▁ostravě	-10.921
▁mary	-10.921
▁bed	-10.921
▁jugoslávie	-10.9211
▁těmto	-10.9211
andr	-10.9213
▁maz	-10.9214
▁hlin	-10.9215
▁vězněn	-10.9216
▁spojen	-10.9217
▁slavnostně	-10.9219
▁opuštěn	-10.9219
▁albrecht	-10.9221
▁podpoře	-10.9221
▁umožnil	-10.9222
▁lese	-10.9224
▁následek	-10.9224
▁národ	-10.9224
▁činil	-10.9225
▁nehod	-10.9231
▁požadoval	-10.9232
bour	-10.9232
▁vypuknutí	-10.9238
▁vystavěn	-10.9243
▁úst	-10.9244
lej	-10.9245
▁řetěz	-10.9247
danou	-10.9248
▁oblé	-10.9249
ned	-10.9249
▁svědčí	-10.9249
▁konzul	-10.9249
▁útoky	-10.925
▁obchody	-10.9252
▁státem	-10.9257
▁paliva	-10.926
▁cestovní	-10.9261
▁jihovýchodně	-10.9261
ode	-10.9264
▁suché	-10.9268
▁podlehl	-10.9271
▁ústavy	-10.9272
kým	-10.9272
▁zachránil	-10.9273
▁španěl	-10.9274
▁představoval	-10.9276
bok	-10.9276
klo	-10.9279
érie	-10.9279
▁ráže	-10.9281
ske	-10.9281
▁vybudována	-10.9281
ňa	-10.9282
▁znalosti	-10.9282
▁pouhých	-10.9282
▁vazby	-10.9283
▁ostrovech	-10.9284
▁hard	-10.9285
fra	-10.9287
archi	-10.9288
▁tropické	-10.9289
▁využíval	-10.929
▁zaměřen	-10.9291
zv	-10.9291
▁zachoval	-10.9293
▁lokality	-10.9295
▁rovin	-10.9296
bran	-10.9302
▁zapsán	-10.9303
▁trestní	-10.9303
pha	-10.9304
▁častěji	-10.9305
▁ideální	-10.9305
▁milen	-10.931
▁komorní	-10.9311
▁osad	-10.9312
▁pel	-10.9314
▁tvořily	-10.9316
▁autobusové	-10.9317
▁bedřich	-10.9317
dik	-10.9319
▁platnost	-10.9321
▁londýna	-10.9322
▁nasazení	-10.9324
▁samotná	-10.9326
▁jakuba	-10.9327
▁námořnictvo	-10.9328
▁majitele	-10.9329
▁kyseliny	-10.933
▁kužel	-10.9334
▁třicetileté	-10.9334
▁turistické	-10.9335
led	-10.9335
night	-10.9335
▁ploch	-10.9336
rag	-10.9339
▁československo	-10.934
▁řidič	-10.934
▁sídlil	-10.934
▁karol	-10.934
▁průvod	-10.9341
daná	-10.9342
▁podřízen	-10.9343
vald	-10.9343
▁sloužící	-10.9344
pěš	-10.9344
▁rozloze	-10.9345
▁dvoře	-10.9345
▁free	-10.9346
▁výhod	-10.9346
▁umělci	-10.9348
▁alt	-10.935
▁univerzitu	-10.9351
▁okamžiku	-10.9354
klam	-10.9354
▁smrk	-10.9355
▁gri	-10.9358
rv	-10.9359
nz	-10.9362
▁zastoupení	-10.9363
ús	-10.9364
dic	-10.9365
▁černého	-10.9368
9.	-10.937
▁duše	-10.9371
▁1861	-10.9371
▁páté	-10.9374
česky	-10.9374
▁rumun	-10.9375
▁uvedeno	-10.9376
lace	-10.9376
▁přesunut	-10.9376
značen	-10.9378
ör	-10.9378
▁doktorát	-10.9379
▁linii	-10.9379
▁mikuláše	-10.9381
▁svobodu	-10.9381
ו	-10.9385
▁tehdejším	-10.9385
▁mechani	-10.9387
inka	-10.9388
▁1871	-10.9388
▁jezdil	-10.9388
ille	-10.9389
▁tor	-10.939
íci	-10.9392
▁španělska	-10.9392
▁uživatele	-10.9393
bíl	-10.9395
▁alkohol	-10.9396
▁kotl	-10.9397
dnešní	-10.9399
▁proslul	-10.9401
▁patřilo	-10.9403
▁absolutní	-10.9405
▁dostatek	-10.9406
▁japonsko	-10.9407
▁využíván	-10.9409
▁kamenný	-10.941
gue	-10.9411
pozor	-10.9413
▁stavitel	-10.9413
▁stabiliz	-10.9415
▁jasně	-10.9415
▁roger	-10.9415
▁hlavními	-10.9416
▁semeník	-10.9418
▁použitím	-10.9419
▁odrůda	-10.9419
▁bavor	-10.942
▁hokej	-10.942
▁kyselin	-10.9421
eus	-10.9424
▁tmavě	-10.9425
▁politická	-10.9426
ovému	-10.9427
avý	-10.9428
▁postupu	-10.9428
▁krátkou	-10.9428
▁myslí	-10.9429
▁hluboké	-10.943
▁výpravy	-10.9431
▁programů	-10.9432
▁song	-10.9433
áři	-10.9433
▁čtvrt	-10.9436
▁koná	-10.9436
▁stromu	-10.9436
▁starosta	-10.9437
▁dynam	-10.9437
▁opravdu	-10.9438
▁obsahem	-10.9439
▁vídeňské	-10.9439
šu	-10.9442
▁1869	-10.9444
▁realizován	-10.9446
rock	-10.9447
▁podal	-10.9449
▁lokalit	-10.945
▁otcov	-10.9452
▁4),	-10.9452
šly	-10.9452
pá	-10.9453
věst	-10.9453
▁daný	-10.9453
▁sjezd	-10.9454
▁q	-10.9454
▁konaly	-10.9456
▁jestliže	-10.946
▁generálního	-10.946
▁štábu	-10.946
▁ču	-10.9461
pet	-10.9462
▁christian	-10.9462
▁ochraně	-10.9463
aly	-10.9463
ujícím	-10.9463
▁mnohdy	-10.9464
▁vypráví	-10.9465
▁vratislav	-10.9468
nického	-10.9468
▁operaci	-10.9469
vost	-10.9469
▁čela	-10.9471
▁správné	-10.9472
chla	-10.9475
▁kus	-10.9477
▁přístavu	-10.9477
▁lodní	-10.9477
▁samostatná	-10.9482
▁radikální	-10.9488
▁oh	-10.9491
▁znamení	-10.9496
▁letních	-10.9501
kontrol	-10.9503
dc	-10.9503
▁učitele	-10.9504
▁bot	-10.9504
▁polovinu	-10.9505
▁kartu	-10.9507
▁gil	-10.9507
ión	-10.951
▁parlamentních	-10.951
arab	-10.951
▁snímku	-10.9511
▁krok	-10.9512
▁gotický	-10.9512
shi	-10.9514
▁pramenů	-10.9515
▁130	-10.9517
▁křiv	-10.9518
▁stejným	-10.952
▁hledal	-10.952
▁jenom	-10.9525
▁balt	-10.9528
▁rozum	-10.9528
▁→	-10.9532
▁neuspěl	-10.9533
▁částice	-10.9534
▁mask	-10.9535
ries	-10.9536
▁hrají	-10.9536
▁angel	-10.954
▁četné	-10.9542
leč	-10.9543
▁síti	-10.9543
▁porážce	-10.9545
▁ostatky	-10.9545
sus	-10.9546
▁scott	-10.9548
▁linek	-10.9551
skij	-10.9555
▁získá	-10.9555
▁vydával	-10.9555
▁experiment	-10.9557
▁technika	-10.9558
▁jur	-10.9561
▁červená	-10.9562
▁zmíněné	-10.9562
mail	-10.9564
▁nachal	-10.9565
▁soupeř	-10.9567
▁prameny	-10.9567
pil	-10.9568
▁žláz	-10.9568
▁těšín	-10.9569
▁struktura	-10.9569
▁závodní	-10.9571
kó	-10.9571
▁potřebuje	-10.9574
у	-10.9574
▁zničení	-10.9577
▁klášteře	-10.958
▁senát	-10.9583
cími	-10.9585
▁nechtěl	-10.9586
▁rody	-10.9586
▁hon	-10.9589
▁restaurace	-10.9591
▁alexander	-10.9592
▁komplexu	-10.9592
▁cam	-10.9593
▁břeh	-10.9596
▁flori	-10.9596
květ	-10.9597
▁vrátí	-10.96
mot	-10.9601
▁květů	-10.9602
▁nejnižší	-10.9603
▁provozuje	-10.9604
▁mr	-10.9606
▁někdejší	-10.9608
▁následoval	-10.9609
▁horním	-10.9609
▁und	-10.9611
▁severovýchodní	-10.9612
▁politika	-10.9615
tabul	-10.9616
▁materiály	-10.9617
▁jít	-10.9618
vrš	-10.9618
▁pravém	-10.9619
▁mé	-10.9623
▁objemu	-10.9625
▁vydavatel	-10.9625
▁začínají	-10.9628
▁lokalitě	-10.9628
▁rozdíly	-10.9628
▁existující	-10.9629
▁dveře	-10.963
▁ona	-10.9632
▁dobrý	-10.9633
vín	-10.9634
▁označují	-10.9635
▁americkém	-10.9636
▁držení	-10.9645
▁hudebního	-10.9648
▁public	-10.9649
▁autobusy	-10.965
osvět	-10.9651
▁postaveno	-10.9655
▁pravý	-10.9656
▁0)	-10.966
▁64	-10.966
▁doložen	-10.9662
▁fer	-10.9664
▁mg	-10.9665
▁jakmile	-10.9667
ket	-10.9671
▁williams	-10.9674
istická	-10.9679
▁potravy	-10.9679
▁bydlel	-10.9685
▁tituly	-10.9687
▁1880	-10.9688
è	-10.969
▁dočasně	-10.9691
aktiv	-10.9693
čkou	-10.9694
▁monitor	-10.9696
▁spa	-10.9697
▁převzala	-10.9698
▁jmenuje	-10.9699
haz	-10.9699
▁čehož	-10.9702
pie	-10.9705
kala	-10.9707
pů	-10.9708
▁odvětví	-10.9708
▁žlutý	-10.971
▁pir	-10.9713
loží	-10.9714
členěn	-10.9715
▁fan	-10.9715
polit	-10.9716
▁krevní	-10.9717
ml	-10.9722
▁plan	-10.9723
hodnot	-10.9723
žlut	-10.9724
our	-10.9724
čítá	-10.9725
tický	-10.9726
▁švýcarsku	-10.9726
▁založený	-10.9727
▁sporu	-10.9727
▁komunit	-10.9728
▁druhem	-10.973
▁živočichů	-10.973
▁jejímu	-10.9732
▁německým	-10.9733
ges	-10.9738
▁konečné	-10.9738
▁luci	-10.9738
▁obrovský	-10.9739
▁převezen	-10.9739
▁kurii	-10.9739
▁daně	-10.9741
▁říční	-10.9742
vent	-10.9743
▁využívat	-10.9743
▁žít	-10.9744
▁zbývající	-10.9746
áků	-10.9746
▁malíře	-10.9747
▁up	-10.9747
▁odrůd	-10.975
▁avivu	-10.9751
▁sbírek	-10.9755
▁zanechal	-10.9755
▁manželem	-10.9757
▁zahynul	-10.9757
▁židovských	-10.9758
▁západu	-10.9758
▁1879	-10.9758
▁hot	-10.9759
▁vydat	-10.976
víd	-10.9763
▁dam	-10.9764
▁1892	-10.9764
▁desetiletí	-10.9764
tvor	-10.9766
▁definice	-10.9768
fried	-10.977
▁hypotéz	-10.9773
▁porot	-10.9774
did	-10.9775
_4	-10.9778
▁přístroj	-10.9778
▁hvězda	-10.9782
iti	-10.9783
itý	-10.9784
▁válečných	-10.9784
▁kvalifikace	-10.9786
▁slez	-10.9787
▁párů	-10.9789
▁započal	-10.9791
▁čtení	-10.9793
▁přínos	-10.9795
▁vědeckých	-10.9796
▁reakcí	-10.9797
▁našel	-10.9799
▁okupace	-10.9803
▁pomáhá	-10.9803
▁skoro	-10.9804
▁lidského	-10.9805
chin	-10.9805
▁fyzik	-10.9806
▁srb	-10.9807
dávat	-10.9807
▁knižní	-10.9809
ír	-10.9809
▁segment	-10.9809
▁jarní	-10.9812
▁trojúhelník	-10.9813
hodil	-10.9813
▁1889	-10.9817
tik	-10.982
▁central	-10.9821
straš	-10.9822
mani	-10.9823
ery	-10.9824
▁peru	-10.9826
▁ph	-10.9826
▁švéd	-10.9829
▁najdeme	-10.983
▁experimentální	-10.9832
▁zřídka	-10.9832
▁překonal	-10.9832
▁ste	-10.9836
▁filosofie	-10.9836
▁povinnosti	-10.9837
▁francouzských	-10.984
▁stopy	-10.9841
▁výrobky	-10.9841
▁vrchní	-10.9842
▁praxe	-10.9845
▁bart	-10.9847
-16	-10.9849
▁titulů	-10.985
▁zajišťoval	-10.985
▁občanství	-10.9851
–6	-10.9852
▁železné	-10.9854
▁parlamentní	-10.9854
lod	-10.9854
jem	-10.9855
▁provést	-10.9856
nen	-10.9856
▁šedesátých	-10.9856
▁tratí	-10.9857
▁mysli	-10.9857
rozum	-10.9857
hil	-10.9858
▁velením	-10.9858
▁1893	-10.9858
▁zakladatele	-10.9861
cent	-10.9862
▁nynější	-10.9864
▁oznámila	-10.9864
graf	-10.9864
▁zanikla	-10.9865
kázal	-10.9865
tika	-10.9866
▁nesl	-10.9867
dio	-10.9868
▁účt	-10.9868
lh	-10.9868
▁kapitána	-10.987
▁podpis	-10.9871
▁kontrakt	-10.9873
▁členkou	-10.9873
burk	-10.9874
▁proběhl	-10.9875
▁ross	-10.9875
klin	-10.9875
▁obdržela	-10.9876
▁obal	-10.9876
▁52	-10.9878
▁reklam	-10.9879
▁trofej	-10.988
▁věži	-10.9883
▁nákup	-10.9884
kry	-10.9884
▁prix	-10.9889
pálen	-10.9895
valy	-10.9897
▁připravoval	-10.9898
▁1868	-10.99
▁še	-10.9904
▁neexistuje	-10.9904
▁zřídil	-10.9904
▁radu	-10.9905
▁miliónů	-10.991
▁přijel	-10.991
nový	-10.9913
▁zelený	-10.9915
▁epizod	-10.9917
▁state	-10.9917
▁paláci	-10.9917
ovacích	-10.9918
▁farář	-10.9918
▁pyramid	-10.9922
▁kanadské	-10.9922
▁náležel	-10.9922
hrab	-10.9923
▁založená	-10.9925
▁běhu	-10.9926
▁zabít	-10.9929
▁firmu	-10.9929
▁orgán	-10.993
▁ustanovení	-10.9931
ckých	-10.9932
▁typický	-10.9934
vést	-10.9936
▁stovky	-10.9937
▁filmový	-10.9937
▁misi	-10.994
▁stránce	-10.994
▁američan	-10.9943
▁uzavřen	-10.9944
▁archeolog	-10.9945
4,	-10.9946
árně	-10.9947
serv	-10.9948
▁bibli	-10.9949
▁používaný	-10.9949
uri	-10.995
pomal	-10.9951
▁rozlišení	-10.9952
bre	-10.9952
▁procesů	-10.9953
▁úder	-10.9954
▁fotbal	-10.9955
ische	-10.9955
hydr	-10.9956
▁škody	-10.9958
▁vládnoucí	-10.9958
rev	-10.9959
▁změnila	-10.9959
▁šu	-10.996
▁kontaktu	-10.9966
row	-10.9968
emi	-10.9968
▁pořadu	-10.9969
kos	-10.997
▁temp	-10.9971
▁dun	-10.9972
antní	-10.9973
▁trasy	-10.9974
▁osvětlení	-10.9975
áním	-10.9976
▁propuštění	-10.998
mate	-10.9981
▁podobná	-10.9981
▁zbroj	-10.9982
▁1883	-10.9984
▁fyzické	-10.9986
íme	-10.9987
▁mluvčí	-10.9989
▁vrb	-10.9989
▁operátor	-10.9989
▁moderních	-10.999
rea	-10.9991
tová	-10.9991
▁přenosu	-10.9991
▁rovnice	-10.9992
▁režiséra	-10.9992
denní	-10.9992
▁úplné	-10.9994
▁svahu	-10.9995
▁gay	-10.9996
padl	-10.9996
▁zahrnují	-10.9996
▁rozhovoru	-10.9998
▁přípravy	-11
anci	-11.0004
čnost	-11.0005
▁květ	-11.0006
maz	-11.0007
▁italského	-11.0008
▁sucho	-11.001
fen	-11.0011
▁jestli	-11.0012
▁zmiňován	-11.0013
▁časté	-11.0015
zelen	-11.0015
ozna	-11.0018
kloub	-11.0018
nica	-11.0018
▁1894	-11.002
▁místy	-11.0021
▁oděv	-11.0022
obec	-11.0023
▁nádvoří	-11.0024
▁odborných	-11.0029
▁pc	-11.0033
▁bloku	-11.0033
▁lehké	-11.0034
▁přirozené	-11.0036
▁příčin	-11.0038
▁nádrž	-11.0039
▁neznámý	-11.004
org	-11.0041
▁high	-11.0054
▁federální	-11.0056
▁dala	-11.0057
▁1872	-11.0058
psal	-11.006
▁trochu	-11.0062
alt	-11.0062
▁elektronické	-11.0063
▁obyvateli	-11.0063
▁velel	-11.0063
▁těle	-11.0066
▁starostou	-11.0067
▁francouzská	-11.0067
▁jaderné	-11.0071
▁bodu	-11.0073
▁absolvent	-11.0073
▁patřící	-11.0074
nci	-11.0076
terapie	-11.0079
▁zničen	-11.0079
▁britských	-11.0083
dp	-11.0085
▁víry	-11.0086
▁radar	-11.0087
▁archeologické	-11.0089
gent	-11.009
▁otvor	-11.0092
▁tělesa	-11.0092
rab	-11.0092
▁média	-11.0092
▁hledat	-11.0092
▁úřadů	-11.0093
vých	-11.0093
▁lehce	-11.0094
oma	-11.0095
▁interiéru	-11.0095
▁různá	-11.0097
agu	-11.0101
▁zvyk	-11.0102
▁psa	-11.0103
▁úrovní	-11.0104
álu	-11.0108
síd	-11.0109
▁předal	-11.0109
▁alfred	-11.011
▁ochrana	-11.0111
kne	-11.0111
čár	-11.0114
▁ukázal	-11.0114
▁teorií	-11.0116
▁grafik	-11.0116
▁pevnin	-11.0116
lak	-11.0119
▁luž	-11.012
▁výhled	-11.0123
kře	-11.0124
bc	-11.0125
▁zajištěn	-11.0126
chor	-11.0126
▁vzrostl	-11.0126
▁koalice	-11.0127
▁kombinaci	-11.0134
tch	-11.0134
ánské	-11.0136
▁daň	-11.0137
hne	-11.014
lt	-11.014
▁vladimir	-11.014
▁vojenská	-11.0141
▁západo	-11.0141
čice	-11.0143
ňan	-11.0143
▁mad	-11.0144
sibiř	-11.0145
▁cestujících	-11.0145
▁továrna	-11.0147
▁klade	-11.0149
československých	-11.0151
▁intenzivní	-11.0153
▁trup	-11.0154
tace	-11.0155
▁společný	-11.0155
ick	-11.0158
rup	-11.0159
▁kultura	-11.016
▁oblouk	-11.016
▁dur	-11.0161
5,	-11.0161
▁1884	-11.0161
gle	-11.0163
áty	-11.0165
▁češtiny	-11.0165
stroj	-11.0165
▁rozdělit	-11.0167
▁140	-11.0167
nský	-11.0168
pres	-11.0169
▁prvek	-11.0172
▁jiní	-11.0176
▁globální	-11.0178
▁filozofické	-11.0181
inem	-11.0182
krit	-11.0183
▁jaromír	-11.0184
▁duchu	-11.0184
▁chart	-11.0184
▁riziko	-11.0186
▁císařské	-11.0188
▁gymnázia	-11.0189
▁nestačil	-11.0196
▁pozůstatky	-11.0196
▁příslušníci	-11.0196
▁přináší	-11.0196
▁stáhl	-11.0198
cul	-11.0198
▁firmě	-11.0202
▁štěstí	-11.0202
ecká	-11.0207
anů	-11.0207
▁kombinace	-11.0208
▁nazvané	-11.0208
letí	-11.0208
uti	-11.021
bir	-11.0213
ib	-11.0213
▁kolín	-11.0213
▁patřili	-11.0214
ë	-11.0214
▁wilhelm	-11.0214
▁procesy	-11.0215
▁1888	-11.0217
▁prapor	-11.0217
▁červ	-11.0217
stoupí	-11.022
▁reaktor	-11.022
▁blan	-11.0221
▁navazující	-11.0225
fs	-11.0226
▁horské	-11.0228
čný	-11.0228
někdy	-11.0228
▁organizační	-11.0229
▁sc	-11.0232
▁domén	-11.0233
▁polského	-11.0238
obraz	-11.0238
▁konferenci	-11.0239
▁mapy	-11.024
▁street	-11.024
ase	-11.0246
dív	-11.0247
▁soused	-11.0247
▁typicky	-11.0248
komun	-11.0248
dech	-11.0248
▁inspiroval	-11.0249
▁linux	-11.0252
spor	-11.0253
zie	-11.0255
▁sop	-11.0256
▁dočkal	-11.0256
6,	-11.0256
▁maur	-11.0258
▁člena	-11.0259
ád	-11.0259
▁dostaly	-11.0263
▁fial	-11.0263
▁populací	-11.0264
▁liberální	-11.0268
▁trase	-11.0269
▁reprezentační	-11.027
▁pásu	-11.0272
hé	-11.0273
▁prestižní	-11.0275
▁stanic	-11.0276
▁zabránit	-11.0276
kového	-11.0281
▁pit	-11.0281
▁reprezentoval	-11.0282
▁družstvo	-11.0282
▁neú	-11.0285
razil	-11.0285
šer	-11.0286
magi	-11.0287
▁rozměry	-11.029
▁janu	-11.029
▁berlín	-11.0292
▁alex	-11.0296
▁pracující	-11.0296
šifr	-11.0296
atý	-11.0297
▁44	-11.0297
▁sloužily	-11.0297
▁startu	-11.0297
laci	-11.0302
▁zkušenost	-11.0302
▁skot	-11.0304
aných	-11.0305
▁poděbrad	-11.0307
▁rozšířena	-11.0308
▁vlast	-11.0309
▁použita	-11.031
▁wei	-11.031
▁40.	-11.0312
▁adapt	-11.0313
å	-11.0313
air	-11.0314
tas	-11.0319
▁zkoumání	-11.0319
▁ohledem	-11.032
běžný	-11.032
elnou	-11.032
▁týkající	-11.0322
ense	-11.0322
▁hlasování	-11.0324
▁pont	-11.0324
▁strýc	-11.0325
▁analog	-11.0325
▁značka	-11.0326
dél	-11.0327
▁středních	-11.0327
▁biskupem	-11.0329
▁rozlohu	-11.0332
▁lem	-11.0334
haus	-11.0336
dvor	-11.0336
▁jedl	-11.0336
▁čeká	-11.0338
▁způsoben	-11.0338
▁nejčastější	-11.0338
▁nímž	-11.034
bylo	-11.034
▁kim	-11.0343
▁obléhání	-11.0345
▁hraniční	-11.0346
aux	-11.0346
▁předmět	-11.0347
▁zastavení	-11.0349
▁johan	-11.0349
▁řídí	-11.0351
▁snaze	-11.0352
▁příběhy	-11.0353
▁patro	-11.0353
▁nádor	-11.0353
▁marií	-11.0355
▁určena	-11.0356
▁uměleckých	-11.0357
▁chlor	-11.0357
▁anglickém	-11.036
-8	-11.0361
▁složky	-11.0362
▁stupni	-11.0363
▁panovník	-11.0365
▁raj	-11.0367
▁soudce	-11.0368
mona	-11.0369
▁lis	-11.0369
cová	-11.0369
▁kritizoval	-11.037
▁blízké	-11.0374
▁trupu	-11.0376
▁jízdy	-11.0377
▁1882	-11.0379
▁dílech	-11.0384
▁grafické	-11.0387
ding	-11.0387
značnou	-11.0388
▁spon	-11.0388
tín	-11.0388
▁nejvýznamnějším	-11.0393
▁kmenů	-11.0393
▁moderního	-11.0395
▁neob	-11.0397
▁štol	-11.0397
▁place	-11.0398
▁statistické	-11.0399
něn	-11.04
▁kosmické	-11.0401
▁najde	-11.0401
▁napaden	-11.0401
kult	-11.0403
▁vrstva	-11.0404
ovaní	-11.0406
▁přístroje	-11.0406
rusky	-11.0406
▁barevné	-11.0406
▁konzum	-11.0406
▁budování	-11.0408
wie	-11.0409
▁neví	-11.041
pom	-11.0412
sten	-11.0414
ped	-11.0414
▁plochu	-11.0415
shire	-11.0419
▁spuštěn	-11.0421
▁jižního	-11.0424
▁literaturu	-11.0426
kládal	-11.0428
stával	-11.0428
▁spolkové	-11.0431
▁švédsko	-11.0432
áže	-11.0433
▁typem	-11.0435
▁šlechtic	-11.0435
kur	-11.0437
řídit	-11.0438
mun	-11.0439
▁účastní	-11.044
▁alternativ	-11.0441
num	-11.0442
skyt	-11.0445
▁vyplývá	-11.0445
▁problémem	-11.0447
▁teplot	-11.0448
hrál	-11.045
▁aut	-11.0451
▁glo	-11.0452
▁křídel	-11.0454
▁částic	-11.0454
zub	-11.0457
▁arch	-11.0458
▁jednotlivými	-11.0458
▁zájmy	-11.0458
vik	-11.0459
▁vydané	-11.046
medi	-11.046
500	-11.046
▁lotyš	-11.046
▁ml	-11.0462
palestin	-11.0463
▁způsobil	-11.0463
mán	-11.0466
▁napojen	-11.0471
▁slad	-11.0472
ářství	-11.0472
tací	-11.0474
zan	-11.0475
▁stříbrné	-11.0476
▁indián	-11.0476
míst	-11.048
▁vytvořili	-11.048
▁dětmi	-11.048
к	-11.0483
▁členství	-11.0483
▁špatně	-11.0484
▁king	-11.0485
▁sloučení	-11.0485
ars	-11.0487
▁jičín	-11.0491
▁cy	-11.0493
ticky	-11.0496
▁cestoval	-11.0496
▁reprezentaci	-11.0496
▁vycházel	-11.0497
▁výstavě	-11.05
film	-11.0501
▁přesné	-11.0502
▁intenzivně	-11.0502
▁kirk	-11.0503
tivně	-11.0503
zdvih	-11.0503
▁někdo	-11.0503
oslav	-11.0504
ečné	-11.0505
▁bohuslav	-11.0505
asy	-11.0505
▁slohu	-11.0509
▁zrušil	-11.051
▁hráčem	-11.0514
dlu	-11.0515
stát	-11.0516
▁vnuk	-11.0519
hlub	-11.0522
▁souborů	-11.0523
čísl	-11.0524
▁úspěchy	-11.0524
▁mak	-11.0525
▁komiks	-11.0526
▁obchodních	-11.0526
▁konstantin	-11.0527
▁katastrální	-11.0528
sadil	-11.0529
▁jaroslava	-11.0531
▁předán	-11.0531
▁okolností	-11.0533
▁karlem	-11.0535
-7	-11.0535
nejvýznamnějších	-11.0536
▁přítok	-11.0536
▁mass	-11.0537
▁uspořádal	-11.0541
▁sjednocení	-11.0541
▁zůstat	-11.0541
▁setkat	-11.0542
▁110	-11.0542
slu	-11.0543
▁fre	-11.0544
▁záznamy	-11.0546
▁dvd	-11.0548
▁herní	-11.0548
olo	-11.0549
▁určitý	-11.055
▁odporu	-11.0552
▁vytvoří	-11.0553
▁doposud	-11.0554
▁poloze	-11.0554
▁ruských	-11.0555
▁památník	-11.0558
▁heinrich	-11.056
▁názoru	-11.0562
▁skaut	-11.0562
▁místopředsedou	-11.0562
▁ovládl	-11.0563
▁blíže	-11.0567
▁jihozápadně	-11.0567
▁krajin	-11.057
tlač	-11.057
▁wil	-11.057
▁zániku	-11.0572
istických	-11.0572
special	-11.0573
cov	-11.0573
uj	-11.0573
▁iso	-11.0575
▁důvod	-11.0575
▁budoucnosti	-11.0576
▁soch	-11.0576
▁zahrála	-11.0578
▁stavěl	-11.0581
fc	-11.0583
▁následky	-11.0585
▁jara	-11.0585
▁zahrnut	-11.0586
nickou	-11.0586
morav	-11.0591
▁komunikační	-11.0592
kontinent	-11.0592
▁srdeční	-11.0593
berger	-11.0594
▁hudebním	-11.0594
▁kameny	-11.0595
▁dole	-11.0596
▁tomáše	-11.0597
▁jazycích	-11.0598
)",	-11.0599
▁veliký	-11.06
▁sum	-11.0601
komp	-11.0602
▁produkty	-11.0604
▁deníku	-11.0605
▁britská	-11.0606
hin	-11.0608
▁sklep	-11.0608
ló	-11.061
▁egypta	-11.061
▁vlaků	-11.0611
▁obvinění	-11.0612
▁zástupců	-11.0613
pé	-11.0613
▁karet	-11.0613
ful	-11.0615
▁vědci	-11.0616
▁bratislava	-11.0618
▁zaútočil	-11.0618
▁výtvarných	-11.062
lepš	-11.062
▁reálné	-11.062
▁výstava	-11.0621
▁bývalá	-11.0622
▁čssr	-11.0624
▁pin	-11.0624
valen	-11.063
▁mód	-11.063
▁konalo	-11.0631
▁kapalin	-11.0631
▁medvěd	-11.0632
▁kongres	-11.0634
▁bitevní	-11.0635
eh	-11.0637
▁specifické	-11.0637
▁oběti	-11.0639
▁zelená	-11.0641
lex	-11.0643
▁kanálu	-11.0645
etu	-11.0646
▁mraz	-11.0647
oň	-11.0647
hud	-11.0647
tsch	-11.0647
▁definován	-11.0648
plik	-11.0649
▁londýnské	-11.0649
yn	-11.0649
▁galaxie	-11.065
▁obr	-11.065
▁zpěvačka	-11.065
pán	-11.065
ivost	-11.0651
▁písmen	-11.0653
▁vlna	-11.0654
▁47	-11.0654
vič	-11.0655
▁přechází	-11.0656
stoup	-11.0659
▁1878	-11.066
▁tramvaje	-11.0663
▁lázně	-11.0663
▁pořádá	-11.0666
▁velkými	-11.0667
▁hc	-11.0667
8.	-11.0668
▁bol	-11.0669
▁závěrečné	-11.067
▁ruční	-11.0671
▁plech	-11.0671
▁symbolem	-11.0672
▁tenis	-11.0673
ovaném	-11.0674
▁přípravě	-11.0674
▁trvalo	-11.0676
▁snižuje	-11.0676
▁absolvování	-11.0676
▁bill	-11.068
▁51	-11.0681
▁starém	-11.0683
óza	-11.0683
▁přistání	-11.0689
▁zaujal	-11.0689
▁paš	-11.0689
▁kopce	-11.0692
▁klad	-11.0692
▁východního	-11.0692
nce	-11.0693
▁regent	-11.0693
▁těžko	-11.0693
▁duševní	-11.0695
▁chalup	-11.0696
▁rakety	-11.0696
▁rozpad	-11.0699
▁zastávka	-11.0702
niční	-11.0703
▁nevlastní	-11.0706
plynul	-11.0707
▁šampionátu	-11.0709
▁objeven	-11.0709
▁lineární	-11.071
▁udává	-11.0711
▁hluboký	-11.0715
▁lípa	-11.0715
izuje	-11.0715
▁západních	-11.0716
▁43	-11.0717
▁vážně	-11.0717
ald	-11.0717
▁odejít	-11.0721
▁devadesátých	-11.0721
▁automaticky	-11.0722
▁výhodou	-11.0724
▁nepřítele	-11.0726
▁sbírku	-11.0728
bas	-11.0729
▁teolog	-11.0729
▁střet	-11.073
tříd	-11.073
▁pum	-11.0731
▁souboj	-11.0732
zón	-11.0733
rok	-11.0734
▁pad	-11.0735
▁zasáhl	-11.0738
▁×	-11.0738
▁myšlenka	-11.074
▁bohatství	-11.0741
▁zásluhy	-11.0742
▁ulic	-11.0742
▁nezávislosti	-11.0743
cka	-11.0744
dř	-11.0744
ozo	-11.0745
▁nazývané	-11.0748
álního	-11.0749
▁stadion	-11.0749
▁online	-11.0749
▁čeleď	-11.0749
vlast	-11.0752
oše	-11.0752
sobot	-11.0753
▁vyjadřuje	-11.0754
▁katastrof	-11.0758
▁strukturu	-11.0763
▁křížové	-11.0764
▁chtějí	-11.0767
▁gustav	-11.0767
▁sand	-11.0767
▁řešit	-11.0767
▁doprovod	-11.0768
▁složen	-11.0768
wy	-11.077
vig	-11.0771
▁baj	-11.0771
▁umožňoval	-11.0773
▁liberec	-11.0774
▁advokát	-11.0776
▁zahradní	-11.0778
uli	-11.078
▁povinn	-11.0786
▁snahy	-11.0786
▁porovnání	-11.0787
ečka	-11.0787
štejn	-11.0789
ović	-11.079
▁kryštof	-11.0793
▁příští	-11.0794
▁club	-11.0795
▁nepod	-11.0796
▁ples	-11.0797
▁nazval	-11.0799
▁nedostatku	-11.0799
▁neděli	-11.0803
–20	-11.0804
▁potvrzen	-11.0806
▁vytvářet	-11.0806
▁synů	-11.0806
▁zánět	-11.0806
▁staletí	-11.0807
▁bri	-11.0808
▁stád	-11.0808
▁zmíněn	-11.0808
▁střev	-11.0809
▁chodil	-11.0813
▁postaveny	-11.0816
▁zaměřuje	-11.0819
▁fiktivní	-11.0819
▁poradce	-11.082
▁raf	-11.0822
das	-11.0825
▁vytvořena	-11.0826
▁zmiňuje	-11.0826
▁trvala	-11.0826
trans	-11.0827
cn	-11.0828
hodl	-11.0829
▁přijde	-11.0829
▁lee	-11.0831
▁vidění	-11.0834
▁sir	-11.0837
tag	-11.0838
▁pušk	-11.0839
▁podnikání	-11.0839
▁podporou	-11.0839
▁pen	-11.0839
▁stránkách	-11.0839
▁dalekohled	-11.084
rez	-11.0841
▁příslušníků	-11.0844
▁pracovních	-11.0844
▁39	-11.0844
▁fotografii	-11.0845
▁sňatek	-11.0845
▁návrhy	-11.0847
▁statku	-11.0849
▁počítačové	-11.085
▁zastávky	-11.0852
▁vybudovat	-11.0852
▁nalézá	-11.0852
▁kontextu	-11.0854
▁míč	-11.0854
chel	-11.0855
▁trav	-11.0855
lap	-11.0857
▁umírá	-11.0857
▁obnovil	-11.0859
▁obnovena	-11.0859
▁sportu	-11.086
▁pojmenována	-11.0864
lux	-11.0865
▁jednoty	-11.0866
mir	-11.0867
▁hotelu	-11.0868
▁patra	-11.0869
▁řeči	-11.087
prs	-11.087
▁pochován	-11.0871
▁nařídil	-11.0872
dru	-11.0874
▁zahrad	-11.0875
prostřed	-11.0877
nn	-11.0877
▁povolen	-11.0878
▁výsledku	-11.0878
stev	-11.0882
▁vrtulník	-11.0883
▁návštěv	-11.0883
bili	-11.0884
řan	-11.0884
▁zjistit	-11.0886
▁chlapec	-11.0887
eth	-11.0889
▁soli	-11.0892
▁dobytí	-11.0892
▁zobrazen	-11.0894
▁spojena	-11.0895
▁usedl	-11.0896
▁nejdelší	-11.0898
oty	-11.0899
▁celostátní	-11.0902
iček	-11.0903
▁nazýval	-11.0904
▁lék	-11.091
▁časové	-11.091
▁mořské	-11.0911
▁benešov	-11.0911
▁požadavků	-11.0911
olit	-11.0912
▁theodor	-11.0913
▁úspěchem	-11.0914
ištích	-11.0917
▁niko	-11.0917
▁nazývají	-11.0918
▁dosahují	-11.0922
▁svěřen	-11.0923
▁srbské	-11.0923
▁pražských	-11.0924
▁zápasech	-11.0925
▁působit	-11.0925
▁změnit	-11.0925
▁slon	-11.0928
nská	-11.093
▁analýzy	-11.093
▁motýl	-11.0931
▁osazen	-11.0932
▁vlajka	-11.0933
▁obyčej	-11.0935
▁automobilů	-11.0935
▁bronz	-11.0936
izol	-11.0937
▁porod	-11.0937
slab	-11.0941
▁2010.	-11.0943
fér	-11.0947
▁středověké	-11.095
dělá	-11.0951
▁emanuel	-11.0951
▁modrý	-11.0953
▁exo	-11.0958
▁pokles	-11.0959
dale	-11.0961
▁podlah	-11.0962
▁hlav	-11.0963
▁pokusu	-11.0966
▁astronom	-11.0966
olymp	-11.0967
istickou	-11.0968
▁spojován	-11.0968
▁1881	-11.0969
ovny	-11.0969
ečná	-11.0969
▁syr	-11.097
▁ukončena	-11.097
charakteristické	-11.097
ball	-11.0971
▁okresního	-11.0971
▁pracovník	-11.0972
ama	-11.0972
▁kladen	-11.0979
▁maximálně	-11.0979
▁vlk	-11.0981
hrával	-11.0981
*	-11.0982
vací	-11.0982
nské	-11.0983
tiku	-11.0983
▁dokumenty	-11.0985
▁čili	-11.0989
výhra	-11.099
▁císařství	-11.099
feder	-11.099
▁produktů	-11.099
▁(1.	-11.0991
▁41	-11.0992
▁zvony	-11.0993
▁prach	-11.0993
▁prožil	-11.0998
stoj	-11.1001
▁prostřední	-11.1002
▁oddíly	-11.1003
▁antoni	-11.1004
nig	-11.1004
▁jednat	-11.1006
▁pánů	-11.1007
▁ztracen	-11.1007
▁technik	-11.1012
▁tabulky	-11.1012
▁chtěli	-11.1016
town	-11.1017
rozená	-11.1017
▁dráze	-11.1019
▁uvádějí	-11.1024
▁zčásti	-11.1025
▁nedostal	-11.1027
meri	-11.1028
▁chorvat	-11.103
▁kulturu	-11.1034
hodí	-11.1036
▁stadionu	-11.1036
▁čisté	-11.1036
▁nadšen	-11.1037
▁dokumentů	-11.1037
▁představitel	-11.1037
▁rizik	-11.1038
▁památkou	-11.1038
▁protivník	-11.1039
tání	-11.1041
▁presbytář	-11.1043
over	-11.1043
vah	-11.1045
▁2011.	-11.1048
ester	-11.1051
ür	-11.1051
▁historický	-11.1052
▁oken	-11.1052
▁dosah	-11.1055
cas	-11.1056
▁podnikl	-11.1059
▁textilní	-11.1059
▁dramat	-11.1059
▁spojující	-11.1061
▁exilu	-11.1063
▁podniků	-11.1063
▁smí	-11.1064
▁nálet	-11.1065
▁dílny	-11.1066
▁hranicích	-11.1071
opa	-11.1072
▁teras	-11.1072
▁některými	-11.1074
▁představitelů	-11.1076
▁dobou	-11.1077
▁osman	-11.1077
▁kateřina	-11.1078
álie	-11.1082
▁bodem	-11.1083
▁známa	-11.1085
nika	-11.1087
▁postavou	-11.1087
▁daného	-11.1088
▁souhlas	-11.1088
▁karpat	-11.1089
charakteristický	-11.1091
▁týdny	-11.1092
▁nerv	-11.1093
vodič	-11.1095
▁vybudován	-11.1099
sr	-11.11
▁matěj	-11.11
▁průměrný	-11.1102
▁tim	-11.1103
pás	-11.1104
lok	-11.1105
▁opravy	-11.1105
▁kabin	-11.1106
▁vzdálené	-11.1109
▁gol	-11.1109
▁polohy	-11.1109
▁kulturního	-11.111
opat	-11.111
▁win	-11.1111
▁frekvence	-11.1112
▁jistý	-11.1113
▁základny	-11.1113
bírají	-11.1114
▁studiích	-11.1117
▁dali	-11.1117
▁službách	-11.1119
▁pád	-11.112
▁mos	-11.1122
▁pedagogické	-11.1123
▁vysokým	-11.1124
▁malým	-11.1125
▁všeobecně	-11.1126
▁evropská	-11.1126
hib	-11.113
▁1887	-11.113
▁římskokatolické	-11.1132
rud	-11.1133
▁nájezd	-11.1134
▁naučil	-11.1134
▁ose	-11.1135
▁potřeb	-11.1136
▁považováno	-11.114
▁wal	-11.114
tti	-11.1142
▁nejstarším	-11.1143
▁třebíč	-11.1146
▁diecéze	-11.1146
běžnou	-11.1146
▁dán	-11.1148
▁staví	-11.1149
hraje	-11.115
▁sleduje	-11.1151
nuté	-11.1153
▁silou	-11.1153
▁hodinách	-11.1154
▁umělé	-11.1158
scen	-11.1158
stane	-11.1162
▁vyrostl	-11.1165
▁výrazný	-11.1166
▁viléma	-11.1167
▁guvernér	-11.1167
▁jinde	-11.1167
dál	-11.1168
▁nezávislý	-11.1168
počítá	-11.1169
▁ustanoven	-11.117
ľ	-11.1171
chan	-11.1172
▁důležitá	-11.1173
▁půdorys	-11.1174
▁předních	-11.1175
cus	-11.1176
▁1866	-11.1176
▁magnet	-11.1177
▁sekundární	-11.1178
▁čestné	-11.118
▁římského	-11.1181
▁reformy	-11.1181
▁cr	-11.1183
▁rozměr	-11.1183
stavil	-11.1183
▁plodem	-11.1183
▁provozní	-11.1184
ath	-11.1185
▁vzápětí	-11.1187
volen	-11.1188
▁osmdesátých	-11.1188
▁krym	-11.1189
nička	-11.1189
vír	-11.119
▁sovět	-11.1191
▁ptáci	-11.1191
▁strategie	-11.1194
book	-11.1195
▁soubory	-11.1197
▁kanón	-11.1198
▁horských	-11.1199
▁hart	-11.12
▁připojen	-11.12
▁určuje	-11.12
▁atlet	-11.1201
▁invazi	-11.1202
sedl	-11.1203
▁řeku	-11.1205
daný	-11.1206
blíž	-11.1207
▁různě	-11.1207
▁diplom	-11.1207
▁potenciální	-11.1208
▁dějinách	-11.1209
ěné	-11.1209
▁serveru	-11.1211
▁stalin	-11.1211
▁humor	-11.1212
▁infekce	-11.1214
▁arthur	-11.1215
▁ocel	-11.1216
▁michaela	-11.1217
▁pokoj	-11.1217
▁zahrnující	-11.1219
▁postu	-11.1219
ňák	-11.1219
▁kdu	-11.122
▁levém	-11.1221
▁jednoduše	-11.1221
▁příjmení	-11.1221
tori	-11.1221
který	-11.1222
▁předem	-11.1222
▁pracovníků	-11.1223
▁christ	-11.1224
▁daroval	-11.1226
hna	-11.1228
▁white	-11.123
▁probíhaly	-11.1233
von	-11.1235
▁typickým	-11.1235
▁krajského	-11.1235
▁mužské	-11.1239
dával	-11.124
jar	-11.1241
▁apoštol	-11.1241
▁otázka	-11.1241
▁přede	-11.1243
▁plynu	-11.1243
▁opraven	-11.1245
card	-11.1246
▁přednášel	-11.1246
▁mnichově	-11.1247
▁pochyb	-11.1247
▁poezie	-11.1248
had	-11.125
anem	-11.125
rom	-11.125
lly	-11.1251
▁držitel	-11.1252
zvuk	-11.1256
draž	-11.1258
ati	-11.1259
▁mongol	-11.126
▁vyhlášena	-11.126
▁ukrajinské	-11.1261
▁ev	-11.1263
▁polský	-11.1264
▁moz	-11.1265
▁umístěné	-11.1269
▁videoklip	-11.1269
7.	-11.1269
▁vína	-11.1269
▁usiloval	-11.1269
▁šíp	-11.1273
▁1886	-11.1273
ativ	-11.1273
▁množin	-11.1275
▁hledá	-11.1277
▁nahrazena	-11.1279
xx	-11.128
▁stimul	-11.1283
▁zmizel	-11.1283
▁látka	-11.1284
červen	-11.1287
▁prahu	-11.1289
▁japonska	-11.1289
▁obrátil	-11.1289
▁galerii	-11.1292
áni	-11.1293
dv	-11.1294
▁tyčinek	-11.1296
▁zdoben	-11.1297
▁bohumil	-11.1298
▁veličin	-11.1298
▁předchůdce	-11.1301
ža	-11.1303
▁turecké	-11.1304
▁vyslal	-11.1305
ováni	-11.1306
▁ei	-11.1306
▁nekonečn	-11.1307
▁dotaz	-11.1307
▁operu	-11.1308
▁dobyt	-11.1309
árie	-11.1309
▁klesá	-11.131
▁pacientů	-11.1311
▁vyslan	-11.1312
▁ohni	-11.1312
▁atmosfér	-11.1312
▁1849	-11.1312
▁zahájila	-11.1313
▁změnou	-11.1313
aud	-11.1314
▁spravedlnosti	-11.1315
▁dřevin	-11.1315
▁vyrobeno	-11.1315
▁brankář	-11.1316
▁dívky	-11.1318
▁radost	-11.1318
▁téže	-11.1319
▁rekreační	-11.1324
▁sultán	-11.1324
▁demokrat	-11.1325
veden	-11.1325
▁moskva	-11.1326
padlo	-11.1327
natá	-11.1329
▁joe	-11.133
pád	-11.133
▁blesk	-11.1331
й	-11.1331
▁brání	-11.1333
střed	-11.1333
▁javor	-11.1333
▁vyslán	-11.1337
▁radou	-11.1338
▁určitých	-11.1338
▁severozápadně	-11.1339
tlak	-11.1339
real	-11.1339
▁králů	-11.1343
▁sekretář	-11.1345
▁epizodě	-11.1347
▁kongresu	-11.1348
▁wall	-11.1353
▁sedmdesátých	-11.1354
▁nemohou	-11.1354
hlas	-11.1354
▁výzkumné	-11.1357
ה	-11.1358
▁médií	-11.1361
▁rakouského	-11.1362
inen	-11.1362
▁měsíci	-11.1363
▁popsán	-11.1363
▁podvod	-11.1364
▁vynález	-11.1364
rij	-11.1366
idae	-11.1366
aga	-11.1366
▁46	-11.1366
▁zástupcem	-11.1369
árna	-11.137
měl	-11.1371
▁politickým	-11.1372
spir	-11.1372
▁hrozí	-11.1373
▁šlechty	-11.1373
▁pořád	-11.1376
▁vítězem	-11.1382
▁cvičení	-11.1382
ces	-11.1382
buch	-11.1384
▁úvěr	-11.1386
▁šo	-11.1386
▁výrobků	-11.1387
▁pásma	-11.139
stol	-11.1392
▁award	-11.1393
▁památku	-11.1394
▁účastníků	-11.1397
fix	-11.1397
▁morava	-11.14
▁strach	-11.14
▁lord	-11.14
▁ukáz	-11.14
pokoj	-11.14
▁zakladatelem	-11.1401
7,	-11.1402
▁zavěšen	-11.1402
▁parazit	-11.1402
▁nimiž	-11.1403
▁pevně	-11.1403
▁případy	-11.1404
dala	-11.1405
loh	-11.1405
▁hloub	-11.1407
▁dozvěděl	-11.1407
▁ministerstvu	-11.1407
▁právnické	-11.1407
lec	-11.1409
▁střetnutí	-11.1409
▁hráz	-11.1411
▁3000	-11.1414
▁soustředil	-11.1414
▁company	-11.1414
▁science	-11.1415
▁zbytku	-11.1415
▁přítelem	-11.1417
▁byť	-11.1418
anské	-11.1419
▁telefonní	-11.142
▁zajímavý	-11.1421
▁specifik	-11.1421
aki	-11.1421
▁střechou	-11.1425
ánský	-11.1427
▁soukromých	-11.1427
gia	-11.1428
▁(†	-11.1428
▁udržoval	-11.1428
▁dialog	-11.1429
ono	-11.1429
spi	-11.1429
▁vytvořené	-11.1432
erie	-11.1432
▁davida	-11.1433
▁homosexuální	-11.1433
▁považovány	-11.1434
start	-11.1441
▁československá	-11.1442
▁gang	-11.1442
▁mladí	-11.1443
stadt	-11.1444
ely	-11.1444
▁1860	-11.1445
škod	-11.1446
▁zabývající	-11.1446
▁hladiny	-11.1446
pěst	-11.1447
▁komunity	-11.1447
▁nebyli	-11.1447
▁dobyl	-11.1448
▁arnošt	-11.1449
▁komisař	-11.1449
▁bible	-11.1452
▁úlohu	-11.1453
vita	-11.1462
▁vyráběn	-11.1462
dent	-11.1466
▁americkou	-11.1468
▁nejspíše	-11.1469
▁uvedla	-11.147
▁ozdob	-11.1471
idu	-11.1472
▁hmyz	-11.1474
gie	-11.1475
české	-11.1477
rö	-11.1477
▁takového	-11.1477
▁sokolov	-11.1479
▁témata	-11.1479
▁švédský	-11.1479
▁oblečení	-11.148
dro	-11.148
▁půdu	-11.1483
membrán	-11.1483
resp	-11.1485
▁nazývaný	-11.1485
▁smetan	-11.1485
▁třináct	-11.1485
▁erik	-11.1486
▁jejími	-11.1487
▁zázemí	-11.1491
▁věnovala	-11.1491
borg	-11.1492
▁dolu	-11.1493
▁skutečný	-11.1494
▁koleje	-11.1495
▁střecha	-11.1495
sád	-11.1495
▁případné	-11.1496
▁vzácně	-11.1496
sam	-11.1496
▁mateřské	-11.1498
▁dát	-11.1498
▁jakým	-11.1499
т	-11.1499
not	-11.1499
▁legend	-11.1502
rent	-11.1502
▁televizních	-11.1505
čtver	-11.1505
▁lidská	-11.1505
bet	-11.1506
▁používala	-11.1507
▁soupeře	-11.1508
tia	-11.1511
▁listin	-11.1513
▁chlum	-11.1513
▁současného	-11.1514
▁publikace	-11.1515
▁kontrast	-11.1515
plod	-11.1516
mistr	-11.1519
▁ostře	-11.152
ann	-11.152
ovku	-11.152
▁ochotn	-11.1521
mark	-11.1522
▁roberta	-11.1523
new	-11.1524
▁vyrábět	-11.1526
nas	-11.1528
▁vyvolá	-11.1528
vrch	-11.1529
▁cri	-11.1529
grad	-11.1529
líb	-11.1533
bliž	-11.1533
▁spolupracuje	-11.1533
razit	-11.1536
▁patnáct	-11.1539
rychlo	-11.1541
▁fort	-11.1543
▁ren	-11.1544
:0	-11.1547
▁otakar	-11.1547
▁trend	-11.1547
▁startoval	-11.1547
▁vážné	-11.1551
▁čsr	-11.1554
▁přemístěn	-11.1554
▁průtok	-11.1555
činy	-11.1559
▁přerušen	-11.1561
▁zajímavé	-11.1561
▁přátelství	-11.1563
▁anglicky	-11.1565
▁patr	-11.1565
cky	-11.1566
čních	-11.1567
▁zikmund	-11.1568
▁cur	-11.1569
kryt	-11.1571
lion	-11.1571
hut	-11.1572
▁uvolněn	-11.1573
▁bratry	-11.1574
▁generálním	-11.1574
▁extra	-11.1575
▁zemětřesení	-11.1576
▁jelen	-11.1579
▁mistrem	-11.1582
|	-11.1583
▁návštěvníků	-11.1583
▁oddílu	-11.1583
▁vznikající	-11.1585
▁náhradní	-11.1586
▁rudolfa	-11.1586
▁fotbalové	-11.1587
žád	-11.1587
▁správně	-11.1587
▁ostatním	-11.1587
háj	-11.1588
▁jediného	-11.1589
hart	-11.159
▁chrání	-11.159
thy	-11.1591
▁sezón	-11.1591
▁vybudoval	-11.1591
strá	-11.1594
▁zvýšil	-11.1597
▁vstoupila	-11.1597
▁měnit	-11.1599
▁ruku	-11.1601
▁narozenin	-11.1602
▁nizozemské	-11.1604
▁league	-11.1604
▁efektivní	-11.1605
▁nalezl	-11.1605
▁nevz	-11.1607
▁kot	-11.1609
som	-11.1611
▁masivní	-11.1619
)".	-11.162
▁koncerty	-11.1621
▁bay	-11.1622
▁psycholog	-11.1622
▁buk	-11.1626
és	-11.1627
vari	-11.1627
▁celých	-11.1627
00)	-11.1632
zákon	-11.1634
▁ateliér	-11.1636
▁fri	-11.1638
▁útvar	-11.1638
reform	-11.164
▁lásku	-11.164
▁větev	-11.1641
▁únor	-11.1641
▁zapsal	-11.1643
▁matt	-11.1643
▁jader	-11.1646
▁bit	-11.1647
▁long	-11.1649
▁žal	-11.1651
▁nalezeny	-11.1652
more	-11.1653
▁výživ	-11.1654
▁francis	-11.1656
▁realizaci	-11.1657
▁odstraněn	-11.1658
účast	-11.1659
národní	-11.166
▁gard	-11.166
▁rozhlas	-11.1661
▁dceři	-11.1661
▁wagner	-11.1661
▁editor	-11.1661
▁lyr	-11.1662
▁zajímal	-11.1662
▁belgie	-11.1663
dus	-11.1663
▁tabulka	-11.1665
ø	-11.1668
idi	-11.1668
▁cat	-11.1669
▁přechodu	-11.167
▁ovládání	-11.167
▁známy	-11.167
▁kritik	-11.1673
cad	-11.1676
▁hodnotě	-11.1676
pustí	-11.1677
▁strán	-11.1679
▁užití	-11.168
poručík	-11.168
gil	-11.1681
▁kysel	-11.1681
jížděl	-11.1682
řízený	-11.1683
▁norman	-11.1684
klenut	-11.1684
▁zdí	-11.169
▁ohlas	-11.1691
▁lokalita	-11.1692
▁katastrálním	-11.1692
maj	-11.1696
▁izraelský	-11.1696
▁dvacátého	-11.1697
fó	-11.1698
mini	-11.1699
▁vyloučení	-11.1699
zích	-11.17
▁ledvin	-11.1701
▁jednoduchý	-11.1702
▁henri	-11.1702
▁bílého	-11.1702
▁giovanni	-11.1704
▁ruská	-11.1704
prst	-11.1706
itelný	-11.1706
▁hliník	-11.1708
▁střediska	-11.1711
beton	-11.1712
▁pčr	-11.1713
míř	-11.1713
▁leon	-11.1714
▁nároky	-11.1715
▁červen	-11.1716
▁faktor	-11.1717
▁průzkumu	-11.1718
▁ref	-11.1718
▁stezka	-11.1718
gn	-11.172
schw	-11.1722
▁vládce	-11.1723
▁následovalo	-11.1724
▁uživatelů	-11.1725
zkráceně	-11.1725
▁důlní	-11.1726
▁trvalé	-11.1727
isabel	-11.1727
spí	-11.1728
rož	-11.1728
▁skvrn	-11.1729
▁daném	-11.1729
těš	-11.1731
zně	-11.1731
rád	-11.1732
▁ind	-11.1734
zet	-11.1734
táhne	-11.1734
▁královský	-11.1735
ovek	-11.1736
mět	-11.1737
álním	-11.1737
villa	-11.1739
▁tajemství	-11.174
▁tm	-11.1741
▁využívána	-11.1742
růst	-11.1743
▁širokou	-11.1745
omer	-11.1746
onem	-11.1746
▁zjištěn	-11.175
▁rašelin	-11.1754
▁provádět	-11.1754
▁snížil	-11.1754
4,5	-11.1758
řízené	-11.1759
▁pohyboval	-11.1759
cr	-11.1759
▁sloučenin	-11.176
▁obe	-11.1761
cat	-11.1761
▁http	-11.1762
▁athén	-11.1765
zpív	-11.1765
▁sledování	-11.1767
uru	-11.1768
gua	-11.1768
▁příslušný	-11.1769
▁považují	-11.1769
▁rado	-11.1769
▁ohrožení	-11.1772
urs	-11.1772
▁helen	-11.1774
▁vypadá	-11.1777
hodně	-11.1778
▁jižních	-11.1778
▁oblíbené	-11.1778
lock	-11.1779
▁autory	-11.1781
řád	-11.1783
▁vodo	-11.1785
▁lab	-11.1787
▁související	-11.179
hýb	-11.1792
▁postavené	-11.1794
ism	-11.1795
▁bubeník	-11.1795
▁základnu	-11.1796
▁zveřejnil	-11.1797
▁brown	-11.1798
běhl	-11.1798
▁vrah	-11.1801
▁vražd	-11.1803
syp	-11.1804
▁společenských	-11.1805
▁přesun	-11.1805
▁latinské	-11.1809
kovým	-11.1809
zur	-11.1809
oba	-11.181
▁protein	-11.1811
▁cham	-11.1814
uck	-11.1814
▁přítele	-11.1816
о	-11.1819
▁signálu	-11.1824
▁pec	-11.1826
▁angažmá	-11.1826
glu	-11.183
kavkaz	-11.183
▁vrcholem	-11.183
▁propojení	-11.1833
obran	-11.1833
▁hustě	-11.1834
krásn	-11.1835
▁marc	-11.1835
▁export	-11.1836
▁kontrolní	-11.1838
▁modrá	-11.1838
▁dívka	-11.1838
▁příchodu	-11.1838
▁křižník	-11.184
▁halič	-11.184
▁pavilon	-11.1841
▁koncentrační	-11.1841
▁rozšířila	-11.1843
▁vypadl	-11.1843
také	-11.1843
▁moravský	-11.1844
▁přešla	-11.1846
▁die	-11.1846
▁dopravě	-11.1848
▁period	-11.1851
▁dospělé	-11.1852
▁klíče	-11.1853
μ	-11.1856
▁těžba	-11.1856
▁miloslav	-11.1857
▁1863	-11.1858
▁plánů	-11.1858
▁uss	-11.1859
▁známého	-11.1859
▁wolf	-11.1862
▁napadl	-11.1862
▁republiku	-11.1863
“),	-11.1863
▁dopravce	-11.1863
▁publikací	-11.1866
oka	-11.1867
štění	-11.1867
▁odpověď	-11.1869
▁mladého	-11.187
▁konstrukcí	-11.187
▁lékařství	-11.1873
ometr	-11.1873
šev	-11.1875
ářů	-11.1879
▁množstvím	-11.1879
▁dokumentu	-11.1882
kům	-11.1884
muž	-11.1884
cke	-11.1885
▁konzol	-11.1886
brat	-11.1886
▁1874	-11.1887
▁čekal	-11.1889
▁zakázán	-11.1889
▁vycházející	-11.189
print	-11.1892
▁vyrůstá	-11.1892
maďar	-11.1892
▁bojové	-11.1892
▁obnovit	-11.1893
šťast	-11.1894
ved	-11.1896
▁úkoly	-11.1898
▁vydávání	-11.1898
▁slavný	-11.1899
▁souhrn	-11.1899
▁patnácti	-11.19
▁náboženských	-11.1901
▁pořízen	-11.1905
pole	-11.1906
tos	-11.1907
platné	-11.1907
▁nacházelo	-11.1908
▁střely	-11.1908
▁arm	-11.1909
▁surovin	-11.191
▁probíhající	-11.1911
▁místnost	-11.1912
▁výrok	-11.1914
▁mince	-11.1915
▁ligu	-11.1917
▁umožňující	-11.1919
▁350	-11.192
▁něž	-11.192
▁schopný	-11.1925
▁skla	-11.1925
izující	-11.1926
▁spjat	-11.1927
cyt	-11.1928
▁zachránit	-11.1929
▁čtvrť	-11.1929
▁stával	-11.193
▁váží	-11.193
hvězd	-11.1932
▁výtvarné	-11.1935
ačního	-11.1935
▁úpatí	-11.1936
▁kanadský	-11.1936
něné	-11.1936
▁kanady	-11.1936
▁kilometry	-11.194
▁osvobozen	-11.194
ante	-11.1941
identi	-11.1943
mmer	-11.1943
▁potíže	-11.1943
▁přesvědčení	-11.1944
▁josefem	-11.1944
▁prokázal	-11.1944
▁budějovice	-11.1944
▁zákazník	-11.1948
▁žádal	-11.1949
▁klan	-11.1949
▁gru	-11.1949
čkem	-11.1949
▁mig	-11.195
▁provincií	-11.1951
▁jones	-11.1951
motor	-11.1951
▁přidán	-11.1951
▁úzké	-11.1952
▁zjev	-11.1952
▁fyziky	-11.1953
▁doporučení	-11.1953
▁novými	-11.1954
▁raději	-11.1954
▁zahrnoval	-11.1955
▁nahradit	-11.1955
ssi	-11.1956
▁vyhořel	-11.1957
novou	-11.1957
▁maďarské	-11.1957
law	-11.1961
▁zlata	-11.1962
lovi	-11.1962
phon	-11.1964
▁milion	-11.1965
▁široká	-11.1965
▁libreto	-11.1965
▁dnešním	-11.1966
oly	-11.1971
enstein	-11.1972
▁sledovat	-11.1973
▁vzdálen	-11.1974
ňován	-11.1974
▁malém	-11.1975
▁bohatě	-11.1976
ois	-11.1976
▁ant	-11.1979
▁sakristie	-11.198
▁hnízd	-11.1984
▁odstartoval	-11.1988
▁hostování	-11.1988
▁vypracoval	-11.1989
▁2012.	-11.1989
▁největšího	-11.1989
▁úprav	-11.1993
▁ultra	-11.1998
▁1876	-11.1998
▁ústředního	-11.1999
▁zhotoven	-11.2002
▁neúspěch	-11.2002
▁růže	-11.2003
▁vedené	-11.2003
▁ocitl	-11.2005
▁vchod	-11.2009
▁gau	-11.2009
▁kaplan	-11.2009
▁paprsk	-11.201
pál	-11.2012
▁švédské	-11.2015
▁jihlava	-11.2017
▁zub	-11.2018
▁bronzové	-11.2018
nstru	-11.202
▁důležitý	-11.202
▁sebevraždu	-11.2023
▁zasažen	-11.2025
etické	-11.2026
▁programovací	-11.2028
ovských	-11.2032
▁zdravotnictví	-11.2032
▁krejčí	-11.2032
čern	-11.2033
▁kohout	-11.2036
▁hlavě	-11.2036
buz	-11.2039
▁svobodné	-11.2039
este	-11.204
▁přirozeně	-11.204
smě	-11.2041
▁podezření	-11.2043
▁začít	-11.2043
▁zpátky	-11.2047
▁srážek	-11.2047
▁vzestup	-11.2047
▁markét	-11.2047
▁dolním	-11.2047
▁pátý	-11.205
▁juan	-11.2051
▁přijala	-11.2054
▁tvůrčí	-11.2054
▁počítačů	-11.2055
dry	-11.2055
▁dnešních	-11.2056
▁osmanské	-11.2056
▁zvítězila	-11.2056
▁tématem	-11.2057
▁písma	-11.2057
▁pseudo	-11.2057
rl	-11.2058
▁pláž	-11.2058
▁fungoval	-11.2059
▁nástupcem	-11.2061
▁konají	-11.2061
▁doprovázel	-11.2061
▁vápen	-11.2062
▁oznámeno	-11.2062
▁chr	-11.2065
▁ekonom	-11.2068
▁konkurenční	-11.2069
▁zisku	-11.2071
▁postavený	-11.2073
▁fakulta	-11.2073
п	-11.2076
▁sběratel	-11.2077
linu	-11.208
▁padesátých	-11.208
▁svrchní	-11.2084
▁borovice	-11.2085
▁vzniknout	-11.2086
▁klubem	-11.2086
▁ukazují	-11.2086
▁déle	-11.2087
▁masaryk	-11.2088
▁tvrdé	-11.2088
etta	-11.2088
▁900	-11.209
▁poskytují	-11.209
ózy	-11.2091
▁vysvětlení	-11.2093
▁česka	-11.2094
▁nižších	-11.2095
▁fle	-11.2096
▁cup	-11.2097
▁expres	-11.2098
▁pluk	-11.2099
▁sňatku	-11.2099
▁sar	-11.2099
▁doktora	-11.2099
▁nejznámějším	-11.2099
týká	-11.2101
▁čtrnáct	-11.2101
▁různým	-11.2102
▁vysokého	-11.2102
▁prošla	-11.2104
▁basketbal	-11.2106
▁mediální	-11.2108
▁snažili	-11.2109
▁křiž	-11.2109
▁poznal	-11.211
▁nechce	-11.2111
lop	-11.2114
▁zahradě	-11.2115
▁dělník	-11.2115
▁nacional	-11.2116
▁kazatel	-11.2116
▁hovor	-11.212
izovaný	-11.212
wing	-11.2121
▁tvůrce	-11.2121
▁družstva	-11.2121
lici	-11.2123
kredit	-11.2124
tři	-11.2127
-12	-11.2128
▁legendy	-11.2129
pálení	-11.2129
▁kořist	-11.213
ogen	-11.2131
čov	-11.2131
hlavní	-11.2133
▁lidových	-11.2135
▁drobných	-11.2136
▁vyšetření	-11.2136
▁vévodství	-11.2136
▁udržet	-11.2136
sona	-11.2138
▁forem	-11.2138
▁bad	-11.2139
▁souhlasil	-11.2139
uherska	-11.2139
▁filozofie	-11.214
▁švýcarské	-11.214
▁kanon	-11.2142
▁sjezdu	-11.2143
▁hluboko	-11.2144
skupin	-11.2146
▁spin	-11.2146
tury	-11.2147
avě	-11.2147
sat	-11.215
▁chyby	-11.215
▁só	-11.2153
▁trvání	-11.2153
▁šesté	-11.2154
▁bezprostředně	-11.2159
hur	-11.216
▁definuje	-11.2161
zou	-11.2163
▁general	-11.2164
▁invest	-11.2165
▁láv	-11.2165
▁řeholní	-11.2166
▁spojeny	-11.2168
▁výkony	-11.2168
▁hen	-11.2169
▁prozatímní	-11.2169
▁dohod	-11.2172
▁převzat	-11.2174
▁formátu	-11.2174
▁klasifikace	-11.2174
▁vlastnost	-11.2179
▁veřejná	-11.2181
▁konečný	-11.2183
▁uváděl	-11.2184
vce	-11.2185
▁%)	-11.2186
áze	-11.2186
▁živil	-11.2186
▁krajan	-11.2187
▁milán	-11.2187
hier	-11.2189
země	-11.219
▁nádob	-11.219
řin	-11.2193
oranž	-11.2193
gb	-11.2193
▁levo	-11.2193
▁přišlo	-11.2194
▁vyh	-11.2195
▁oběť	-11.2196
▁abeced	-11.2196
▁princezna	-11.2197
šlecht	-11.2198
placen	-11.2198
0%	-11.2199
plaz	-11.2199
alismu	-11.2201
lky	-11.2201
▁labe	-11.2201
▁malt	-11.2201
▁170	-11.2202
▁znamenal	-11.2202
▁stanov	-11.2202
▁ideolog	-11.2204
▁kampaň	-11.2204
▁uloženy	-11.2205
▁masa	-11.2208
protestant	-11.2208
▁většího	-11.2209
▁rozchod	-11.221
▁styku	-11.2211
▁hudebník	-11.2211
▁angličtině	-11.2211
árny	-11.2212
▁získaly	-11.2213
▁1875	-11.2214
ijské	-11.2214
pc	-11.2215
▁las	-11.2215
řazen	-11.2217
▁fotoaparát	-11.2219
▁kurfiřt	-11.2219
▁bratří	-11.2219
prázdn	-11.2219
kovité	-11.2221
▁řeckého	-11.2222
▁marcel	-11.2222
▁zničena	-11.2222
▁matematik	-11.2225
▁zabezpečení	-11.2226
vec	-11.2227
▁sab	-11.2227
▁stříbrný	-11.2228
schi	-11.2229
▁muzikál	-11.2229
▁schopností	-11.223
skl	-11.2232
▁prosazoval	-11.2234
▁nejslavnější	-11.2234
▁kolonií	-11.2235
▁kir	-11.2235
▁nahrál	-11.2236
▁silným	-11.2236
ical	-11.2237
▁geolog	-11.2238
▁jídel	-11.2241
▁epizoda	-11.2241
▁esej	-11.2241
▁využitím	-11.2241
▁rozliš	-11.2242
▁snímky	-11.2242
▁říci	-11.2242
▁podniky	-11.2244
▁sestrou	-11.2244
▁gotické	-11.2247
▁označoval	-11.2249
▁začátek	-11.2249
▁silnou	-11.2249
kovat	-11.2249
▁občan	-11.225
▁příslušnosti	-11.2252
▁ziskem	-11.2253
▁pozorovat	-11.2253
ezi	-11.2255
úz	-11.2255
chron	-11.2256
▁dialekt	-11.2257
▁hradní	-11.2257
▁čaroděj	-11.2258
▁180	-11.2259
▁podobných	-11.226
způsob	-11.226
"“	-11.2261
▁nejstarších	-11.2261
▁tvrze	-11.2261
▁černou	-11.2263
▁roztok	-11.2263
▁omezené	-11.2263
▁google	-11.2264
▁drát	-11.2265
kli	-11.2265
▁125	-11.2265
▁boris	-11.2267
ózní	-11.2269
▁debat	-11.2269
▁žup	-11.2269
ule	-11.2271
íky	-11.2271
▁příslušník	-11.2272
▁rozvíjel	-11.2272
▁zabránil	-11.2272
▁učitelem	-11.2273
bot	-11.2274
▁vybaveny	-11.2276
sis	-11.2276
íků	-11.2276
▁žluto	-11.2277
▁směs	-11.2278
téká	-11.2278
▁neutrální	-11.2279
bír	-11.2279
▁nastavení	-11.2284
:30)	-11.2285
▁moravského	-11.2285
bridge	-11.2287
ping	-11.2287
▁nákladů	-11.2288
▁legendární	-11.2289
hrád	-11.2291
▁tvořil	-11.2292
dler	-11.2293
▁připomínající	-11.2293
bách	-11.2293
▁flo	-11.2294
▁japonský	-11.2294
tvrz	-11.2295
▁šroub	-11.2296
▁partnerství	-11.2297
▁rozhlasu	-11.2298
▁přistál	-11.2301
pier	-11.2302
▁dřevěná	-11.2302
▁pozemků	-11.2302
dále	-11.2303
střelen	-11.2303
▁uefa	-11.2303
klop	-11.2304
▁opětovně	-11.2304
▁zapojen	-11.2304
▁závodech	-11.2305
▁zkušeností	-11.2309
▁povídky	-11.231
▁zbaven	-11.2311
▁zaměření	-11.2311
▁následkem	-11.2311
▁system	-11.2313
▁úzký	-11.2313
▁stone	-11.2314
hru	-11.2314
latinsky	-11.2315
▁jmenování	-11.2316
▁výstavu	-11.2319
▁archivu	-11.2321
▁manželé	-11.2323
▁úv	-11.2324
chirurg	-11.2325
▁nejsilnější	-11.2325
▁odchází	-11.2325
▁miliardy	-11.2327
▁mrtvých	-11.2328
▁sci	-11.2329
▁povolán	-11.2329
▁narazil	-11.2329
▁projevil	-11.233
▁vyrobil	-11.2333
▁young	-11.2334
▁takovém	-11.2334
▁ducha	-11.2335
▁naše	-11.2335
▁suk	-11.2336
▁algoritm	-11.2337
▁přinesla	-11.2338
▁fox	-11.2338
▁vymezen	-11.2338
ambi	-11.2339
▁2014.	-11.234
test	-11.234
▁letectvo	-11.234
▁pohraniční	-11.234
▁pojmenoval	-11.234
chaj	-11.2345
▁běh	-11.2346
▁přejmenován	-11.2347
▁zpívá	-11.2347
▁kvalitu	-11.2348
▁označována	-11.2348
▁výšku	-11.2351
▁manželku	-11.2352
▁smíšené	-11.2352
▁jednoznačně	-11.2356
▁rozsáhlá	-11.2356
▁uložen	-11.2358
▁problému	-11.236
▁vývojem	-11.2362
štěn	-11.2364
▁terminál	-11.2365
mara	-11.2366
▁parti	-11.2366
ight	-11.2367
▁námět	-11.2368
▁podílí	-11.2369
▁složené	-11.2371
ô	-11.2371
▁podmínkou	-11.2371
▁víkend	-11.2371
▁postranní	-11.2372
hry	-11.2372
▁třiceti	-11.2373
▁filipa	-11.2375
ejší	-11.2376
▁čtenář	-11.2377
▁konstrukční	-11.2379
▁dusík	-11.238
▁seminář	-11.2381
▁granát	-11.2382
▁beroun	-11.2383
oxid	-11.2384
kládají	-11.2384
▁žid	-11.2387
▁knížecí	-11.2387
▁vznikaly	-11.2391
▁dělal	-11.2394
▁vybavena	-11.2394
▁čeští	-11.2396
eného	-11.2398
▁pořádal	-11.2399
▁předchozím	-11.2399
▁koncentrace	-11.2402
jov	-11.2402
▁výprav	-11.2403
▁celkovou	-11.2403
▁gabriel	-11.2403
▁nejúspěšnější	-11.2404
nyní	-11.2405
sloven	-11.2405
▁dosti	-11.2405
▁dalšímu	-11.2407
▁příchodem	-11.2408
▁vysočina	-11.2408
▁unesco	-11.2409
▁dění	-11.241
▁jazykové	-11.2411
▁plot	-11.2414
onos	-11.2414
▁chris	-11.2416
arda	-11.2416
▁vil	-11.2418
▁odvolání	-11.2421
▁založila	-11.2421
▁zničit	-11.2426
ore	-11.2427
▁televizním	-11.2427
▁un	-11.2428
jede	-11.2428
roš	-11.2431
▁ur	-11.2432
▁alfa	-11.2432
▁2013.	-11.2432
▁bbc	-11.2433
▁poskytoval	-11.2433
zz	-11.2434
▁letecký	-11.2434
▁jezdec	-11.2434
▁statky	-11.2438
▁1:1	-11.2438
▁hrdina	-11.2439
▁rezerv	-11.2439
ograf	-11.244
▁kategorií	-11.244
▁hradce	-11.244
▁mužský	-11.244
▁testy	-11.2441
▁plánování	-11.2442
alizaci	-11.2443
▁prim	-11.2443
▁keře	-11.2444
▁měnil	-11.2448
tíž	-11.2449
▁známou	-11.245
▁rose	-11.2453
▁přípravu	-11.2453
▁kalifornii	-11.2456
▁vyznačuje	-11.2456
lv	-11.2456
▁uran	-11.2456
▁dír	-11.2456
▁metodou	-11.2457
▁modelů	-11.2458
▁metodu	-11.2459
▁milost	-11.246
▁sledoval	-11.2468
▁koncertů	-11.2468
▁svatých	-11.2468
▁souhvězdí	-11.2471
▁žďár	-11.2471
▁vyřadil	-11.2471
▁lokomotiva	-11.2471
▁barbar	-11.2473
elem	-11.2475
▁žák	-11.2476
▁teologie	-11.2476
▁zaklenut	-11.2478
▁zakončen	-11.248
český	-11.248
▁kre	-11.2481
▁středního	-11.2483
▁územím	-11.2483
200	-11.2485
▁instalován	-11.2486
rej	-11.2489
▁dodat	-11.2492
istka	-11.2492
▁lim	-11.2493
▁uplatnění	-11.2493
▁agentury	-11.2493
▁slovanské	-11.2494
ב	-11.2494
▁průměrné	-11.2495
lk	-11.2495
▁stačí	-11.2495
▁láska	-11.2496
▁space	-11.2497
▁elf	-11.2499
▁rybníka	-11.2499
▁šestnáct	-11.2501
▁písmo	-11.2501
▁odrůdy	-11.2502
inus	-11.2502
▁městy	-11.2502
▁zpřístupněn	-11.2503
vad	-11.2504
lič	-11.2506
▁stěně	-11.2507
šed	-11.2507
▁pyl	-11.2507
▁titulem	-11.2512
alismus	-11.2516
tova	-11.2517
▁současná	-11.2518
cast	-11.2519
ofil	-11.2519
▁objevili	-11.2521
▁otázku	-11.2525
▁frontě	-11.2526
▁teplo	-11.2527
skript	-11.2527
▁chuť	-11.2528
▁ohrožen	-11.2528
het	-11.2529
▁praktické	-11.2529
ety	-11.2531
▁vyprávění	-11.2532
▁objektiv	-11.2532
cop	-11.2534
▁testování	-11.2534
▁probojoval	-11.2534
▁koryt	-11.2535
▁sestaven	-11.2535
▁plánované	-11.2537
▁54	-11.2538
▁american	-11.2539
▁komunikací	-11.254
▁odvod	-11.2541
▁přízemní	-11.2541
horn	-11.2545
▁používána	-11.2545
▁uznán	-11.2548
orel	-11.2551
▁klement	-11.2551
▁šupin	-11.2551
▁plnění	-11.2552
▁vybojoval	-11.2552
▁uvedeny	-11.2552
ingen	-11.2553
▁zásah	-11.2554
▁věděl	-11.2555
▁nepomuckého	-11.2557
▁obtížné	-11.2557
▁přímý	-11.2558
▁zaměřil	-11.2558
▁záznamů	-11.2559
▁rodiči	-11.2563
▁nositel	-11.2564
působ	-11.2564
▁bazén	-11.2565
▁2009.	-11.2565
▁zaměstnance	-11.2566
▁stavy	-11.2567
▁ustaven	-11.2569
▁sporů	-11.2569
aru	-11.257
▁úprava	-11.2571
▁krev	-11.2572
▁očí	-11.2572
▁důkazy	-11.2572
▁příbuzné	-11.2572
▁zvlášť	-11.2572
▁tisíciletí	-11.2572
jízd	-11.2573
▁styk	-11.2573
▁cibul	-11.2575
▁peri	-11.2575
▁rab	-11.2578
▁krajské	-11.2579
▁švédsku	-11.2581
ovském	-11.2582
tung	-11.2584
▁lovu	-11.2586
▁odboje	-11.2587
▁nacházely	-11.2588
▁desku	-11.2588
▁zastupoval	-11.2588
▁členění	-11.2589
▁německem	-11.2589
▁56	-11.2589
▁odolnost	-11.2591
▁kouzel	-11.2593
čkách	-11.2595
▁častým	-11.2595
▁zbořen	-11.2595
ל	-11.2596
▁kriticky	-11.2596
▁douglas	-11.2596
▁předchozího	-11.2597
▁billboard	-11.2597
rozděl	-11.2598
ačním	-11.26
▁velitelství	-11.26
▁čtrnácti	-11.2601
▁brand	-11.2601
▁stupňů	-11.2603
▁potomci	-11.2604
▁kruhu	-11.2607
nově	-11.2607
▁dušan	-11.2608
▁řízen	-11.2608
▁marián	-11.2608
▁soustava	-11.2611
▁mit	-11.2612
▁hloubky	-11.2612
▁db	-11.2613
▁dokumentární	-11.2615
▁obří	-11.2617
▁potkal	-11.2618
▁představitelé	-11.2619
▁slezské	-11.2619
ito	-11.2619
▁hypo	-11.262
▁zvíře	-11.2621
burn	-11.2621
▁tajně	-11.2622
▁benedikt	-11.2626
▁elektrárny	-11.2627
▁znění	-11.2628
▁skladbu	-11.263
▁pala	-11.263
▁rozšířené	-11.263
▁stavebních	-11.2631
smrt	-11.2633
park	-11.2635
tory	-11.2637
čko	-11.2637
▁potomků	-11.264
▁upraven	-11.2641
▁žul	-11.2643
▁kosti	-11.2644
auer	-11.2647
▁augusta	-11.265
▁but	-11.2651
▁existovala	-11.2651
roku	-11.2652
▁příznaky	-11.2655
▁umístěno	-11.2656
▁středním	-11.2657
kost	-11.2658
boha	-11.2658
▁tis	-11.266
▁dospělosti	-11.266
▁skály	-11.266
▁protektorátu	-11.2662
▁bomb	-11.2662
▁met	-11.2663
▁konzerv	-11.2663
aři	-11.2664
▁bojovat	-11.2664
▁určený	-11.2665
▁stránek	-11.2665
wo	-11.2665
▁imunitní	-11.2667
▁kultuře	-11.2668
▁důchodu	-11.2669
▁ohrožený	-11.267
povídá	-11.2673
▁hmoty	-11.2673
▁akční	-11.2674
▁výhře	-11.2675
pion	-11.2675
▁změnám	-11.2678
▁ovládal	-11.2678
▁jablon	-11.2679
▁domácích	-11.268
▁tzn	-11.2681
dium	-11.2681
_5	-11.2686
▁takovou	-11.2687
▁obsadila	-11.2689
▁poháněn	-11.2691
francouz	-11.2694
▁plný	-11.2696
point	-11.2696
▁jakož	-11.2696
▁mše	-11.2697
ów	-11.2698
oid	-11.2698
▁kostelní	-11.2698
▁počítá	-11.2699
▁utkal	-11.2699
▁enzym	-11.2701
▁používaly	-11.2701
rest	-11.2702
▁technických	-11.2702
ttle	-11.2703
▁otevřeno	-11.2703
▁ztratila	-11.2705
▁dětem	-11.2706
▁2008.	-11.2707
▁hala	-11.2708
▁šíří	-11.2709
▁jordán	-11.271
▁doklad	-11.2713
▁hostitel	-11.2714
▁astronaut	-11.2714
▁režíroval	-11.2714
špi	-11.2715
což	-11.2715
▁majetkem	-11.2716
▁příslušné	-11.2717
▁neuro	-11.2718
▁věřící	-11.2718
rýn	-11.272
čerpá	-11.272
ę	-11.2722
▁souběžně	-11.2722
▁beck	-11.2723
▁hřbitova	-11.2723
gis	-11.2724
▁samičí	-11.2725
▁sociolog	-11.2727
▁zněl	-11.2729
▁pravděpodobnost	-11.2729
▁římských	-11.2729
kav	-11.2729
▁obnovu	-11.2733
▁prodloužen	-11.2735
▁svazích	-11.2737
▁načež	-11.2738
▁specifický	-11.2739
▁vnímání	-11.274
▁opustila	-11.2741
veře	-11.2744
▁lístků	-11.2747
chud	-11.2747
▁odstín	-11.2748
▁smut	-11.275
▁ernst	-11.275
▁kvant	-11.2753
▁vojenským	-11.2753
▁odkazuje	-11.2754
▁ukrajině	-11.2754
▁chtěla	-11.2757
slovensk	-11.2757
▁nízko	-11.2758
▁musely	-11.2761
▁elektrický	-11.2763
▁zařazení	-11.2765
skuteč	-11.2765
ško	-11.2765
německé	-11.2766
čk	-11.2769
▁ludwig	-11.277
▁stejná	-11.277
▁najednou	-11.2771
▁beat	-11.2771
▁sara	-11.2773
▁brus	-11.2774
▁proběhly	-11.2776
▁veškerý	-11.2778
press	-11.278
poví	-11.278
▁uvedených	-11.2781
tehdy	-11.2782
váděl	-11.2782
▁prales	-11.2783
▁2015.	-11.2784
erová	-11.2784
▁jednotkami	-11.2785
▁orchestru	-11.2785
▁lub	-11.2785
▁samec	-11.2785
▁1862	-11.2788
▁sídelní	-11.2789
▁kritika	-11.2789
▁občané	-11.2792
union	-11.2792
▁obsahovat	-11.2793
▁konstruktér	-11.2795
▁ikon	-11.2796
ících	-11.2798
▁schopné	-11.28
ere	-11.2801
▁děčín	-11.2802
▁kvalifikaci	-11.2803
▁následovaly	-11.2803
▁zásobník	-11.2805
head	-11.2808
▁bývalých	-11.2808
▁civil	-11.2808
▁studiem	-11.2809
▁svobodný	-11.2809
▁definitivní	-11.281
ovití	-11.281
▁internetové	-11.281
▁památkov	-11.2811
▁mnich	-11.2812
▁sousedí	-11.2814
ons	-11.2814
▁matce	-11.2815
ivý	-11.2816
spar	-11.2816
я	-11.2818
▁pták	-11.2818
▁památkové	-11.2818
▁žijících	-11.282
▁páru	-11.2821
▁stálé	-11.2821
vers	-11.2824
ā	-11.2826
▁kok	-11.2827
rog	-11.2827
▁spojit	-11.2828
▁dohodl	-11.2828
▁životopis	-11.2829
▁věří	-11.2829
▁dostával	-11.2832
▁85	-11.2833
▁císaři	-11.2833
▁vysílač	-11.2834
▁účelu	-11.2836
▁dědic	-11.2837
muslim	-11.2837
narozen	-11.2841
▁využívání	-11.2841
idel	-11.2844
▁přáteli	-11.2844
▁celým	-11.2845
▁fas	-11.2846
▁rodné	-11.2846
▁ramen	-11.2847
▁pověsti	-11.2849
řené	-11.2849
▁samuel	-11.285
ware	-11.285
▁osídlen	-11.2851
kód	-11.2853
▁2:1	-11.2854
▁zeď	-11.2856
▁konstant	-11.2857
▁zrak	-11.2857
▁krom	-11.2857
▁federálního	-11.2858
▁mimořádně	-11.2858
pas	-11.2861
▁teplotě	-11.2861
išt	-11.2861
▁záchranné	-11.2862
▁obývá	-11.2864
▁vyvíjel	-11.2866
▁vitamín	-11.2866
▁don	-11.2866
benz	-11.287
king	-11.287
▁nízkou	-11.287
▁umožnilo	-11.2874
▁střídavě	-11.2874
▁zmínky	-11.2874
áda	-11.2875
▁2016.	-11.288
▁porušení	-11.2881
▁porosty	-11.2882
ñ	-11.2882
▁virtuální	-11.2882
▁konání	-11.2882
side	-11.2882
▁sup	-11.2883
▁sr	-11.2883
andra	-11.2885
liter	-11.2889
▁nezávisle	-11.289
▁49	-11.289
lost	-11.289
▁prostějov	-11.2891
▁cihel	-11.2892
▁tep	-11.2893
▁uznal	-11.2893
čl	-11.2893
▁kad	-11.2894
itů	-11.2895
▁inspirován	-11.2895
áren	-11.2897
▁pokédexu	-11.2898
▁stálo	-11.2899
▁šk	-11.2902
aře	-11.2902
▁pavl	-11.2903
▁3,5	-11.2905
▁zad	-11.2906
▁term	-11.2906
▁neb	-11.2906
citliv	-11.2906
▁tvořila	-11.2907
mand	-11.2907
▁mudr	-11.2907
vané	-11.2908
master	-11.2908
▁všeobecné	-11.291
▁rohu	-11.2911
štinu	-11.2916
▁patrné	-11.2917
▁1864	-11.2917
▁časopisů	-11.2918
bíral	-11.2919
▁důchod	-11.292
▁investor	-11.2922
▁probošt	-11.2923
▁piet	-11.2925
▁francouzskou	-11.2927
▁korej	-11.2928
▁běžných	-11.2929
▁půdorysu	-11.293
enského	-11.2931
tum	-11.2932
▁09	-11.2933
▁zavedena	-11.2934
▁vít	-11.2935
oxy	-11.2936
kluz	-11.2936
inách	-11.2939
▁přerušení	-11.2939
lhot	-11.2941
▁mike	-11.2941
▁matice	-11.2942
▁systémech	-11.2942
▁společník	-11.2945
▁bene	-11.2946
koň	-11.2946
▁svátek	-11.295
▁harmon	-11.2951
▁sociálního	-11.2951
▁scéna	-11.2953
▁jazz	-11.2957
kraj	-11.2957
▁obuv	-11.2958
she	-11.2959
▁banka	-11.296
▁kapacita	-11.2963
▁muselo	-11.2963
▁ilegální	-11.2963
trhl	-11.2964
anni	-11.2966
▁iron	-11.2966
pomoc	-11.2966
▁vzrůst	-11.2967
kh	-11.2969
▁stanicí	-11.297
▁lau	-11.297
▁marketing	-11.2971
▁motocykl	-11.2971
map	-11.2971
▁způsobit	-11.2973
fun	-11.2974
▁ježíše	-11.2976
▁zuby	-11.2977
▁vědom	-11.2978
pag	-11.2979
▁brazílii	-11.2979
▁evropskou	-11.298
▁jev	-11.298
▁hodnocen	-11.2983
100	-11.2983
▁front	-11.2988
▁obs	-11.2988
▁vlajky	-11.2988
▁oko	-11.299
▁element	-11.299
▁únik	-11.2993
bývají	-11.2994
salon	-11.2994
▁drama	-11.2995
▁zaměstnanci	-11.2996
▁bolesti	-11.2996
stil	-11.2996
sun	-11.2999
írají	-11.2999
▁vozem	-11.3004
▁fungování	-11.3004
▁maj	-11.3004
bag	-11.3006
▁týká	-11.301
▁účinek	-11.3012
▁podnebí	-11.3012
▁ag	-11.3012
▁verš	-11.3013
▁nesla	-11.3014
▁plavidla	-11.3016
▁techniku	-11.3017
▁uskutečnila	-11.3017
▁tělesné	-11.3018
▁bombardér	-11.3019
▁vhodná	-11.302
▁vyzbrojen	-11.302
ovitou	-11.3021
▁legie	-11.3021
▁knížat	-11.3022
▁postavili	-11.3022
trof	-11.3022
pustit	-11.3022
▁kod	-11.3023
pracoval	-11.3023
▁obchodník	-11.3023
▁2006.	-11.3024
▁liga	-11.3024
▁neměli	-11.3027
▁ryby	-11.3028
▁vysvětluje	-11.3028
▁obránce	-11.3028
▁těžby	-11.3029
▁reklamní	-11.3029
iér	-11.303
džu	-11.303
livé	-11.3031
moto	-11.3032
▁kovů	-11.3032
▁vdov	-11.3034
▁vpravo	-11.3036
▁čest	-11.3036
ostra	-11.3036
▁reagoval	-11.3037
▁těsné	-11.3037
▁červenou	-11.3037
enburg	-11.3039
▁odhaduje	-11.3041
republik	-11.3042
olov	-11.3044
▁jacob	-11.3045
▁současných	-11.3045
▁cara	-11.3045
▁sady	-11.3046
▁odpovídal	-11.3046
▁výcviku	-11.3047
sha	-11.3048
▁letišti	-11.305
gran	-11.3052
▁pozorován	-11.3052
▁přerov	-11.3053
▁nástav	-11.3054
▁maďarsko	-11.3055
▁katolický	-11.3057
rion	-11.3057
atá	-11.306
▁dozor	-11.3062
trh	-11.3064
▁půda	-11.3066
▁vývojář	-11.3066
▁zůstávají	-11.307
▁ztvárnil	-11.307
lju	-11.3071
▁újezd	-11.3072
ew	-11.3076
▁chrudim	-11.3078
▁bere	-11.3078
kali	-11.3079
▁parametry	-11.3079
▁chot	-11.3079
▁dresu	-11.308
tér	-11.308
day	-11.3083
▁záložní	-11.3085
▁zakoupen	-11.3086
▁spisovatelů	-11.3086
▁tvář	-11.3087
▁šedo	-11.3087
▁krásné	-11.3089
▁starosty	-11.3089
▁externí	-11.3091
▁dochovaly	-11.3093
obvykle	-11.3095
▁vyroben	-11.3096
▁začnou	-11.3097
▁účetní	-11.3097
▁pískov	-11.3098
▁nacistické	-11.3099
▁účelům	-11.31
líz	-11.3104
▁zachycen	-11.3105
▁organizoval	-11.3105
tvář	-11.3105
▁samčí	-11.3108
píše	-11.3108
▁soul	-11.3109
rib	-11.3109
▁samostatných	-11.311
▁okny	-11.311
▁plzně	-11.3111
křesťan	-11.3111
▁5),	-11.3113
▁užší	-11.3114
áza	-11.3115
hřív	-11.3116
▁napodob	-11.312
▁speciálně	-11.3121
▁šanci	-11.3122
ethan	-11.3123
uchy	-11.3125
osu	-11.3126
▁kauz	-11.3127
▁psi	-11.3127
▁doprovázen	-11.3127
▁klobouk	-11.3127
▁obvyklé	-11.3127
▁platil	-11.3127
▁expert	-11.3128
▁střechy	-11.3129
riz	-11.3135
▁brazílie	-11.3135
▁takzvané	-11.3135
▁bet	-11.3136
▁zásoby	-11.3137
házel	-11.314
▁vyráběl	-11.3141
▁dveří	-11.3141
▁vydá	-11.3141
tej	-11.3141
žek	-11.3144
▁fred	-11.3145
▁hugo	-11.3145
▁slezska	-11.3146
▁přijata	-11.3148
▁nahradila	-11.3148
mej	-11.3149
židov	-11.3149
▁77	-11.3151
slušn	-11.3152
▁turistická	-11.3152
pd	-11.3158
▁sloves	-11.3158
▁příklady	-11.3159
▁dosahoval	-11.3159
měsíční	-11.3159
rovna	-11.3159
▁důsledkem	-11.316
▁nejsvětější	-11.316
▁mhd	-11.316
▁celkového	-11.3162
▁uzavřené	-11.3162
▁východních	-11.3162
▁odmítla	-11.3164
▁znalost	-11.3164
▁síle	-11.3166
▁fotografické	-11.3166
▁mála	-11.3168
▁potravu	-11.3169
sdorf	-11.3169
▁moskvy	-11.3169
▁bažin	-11.3171
ward	-11.3174
▁tvary	-11.3177
člen	-11.3177
▁výchovy	-11.3179
yer	-11.3179
německý	-11.318
socialist	-11.3182
žalob	-11.3182
▁uzavřena	-11.3183
cre	-11.3183
ály	-11.3183
jin	-11.3184
pravo	-11.3184
▁viii	-11.319
▁zelených	-11.3192
א	-11.3193
▁bezprostřední	-11.3193
egg	-11.3196
▁psychologie	-11.3197
▁hrající	-11.3199
peře	-11.3199
tera	-11.32
chránil	-11.3201
▁víru	-11.3201
▁hospod	-11.3202
▁bílou	-11.3205
▁polární	-11.3205
▁58	-11.3206
▁vii	-11.3206
tona	-11.3208
▁slavné	-11.3208
▁pracují	-11.3209
▁dodavatel	-11.321
▁zasahuje	-11.321
▁united	-11.321
▁doplnil	-11.321
▁rysy	-11.3211
▁najevo	-11.3212
▁mořem	-11.3214
lekt	-11.3216
▁bránil	-11.3216
defin	-11.3217
▁palubní	-11.3218
▁terezie	-11.3219
▁pierre	-11.3219
čem	-11.3222
▁heli	-11.3222
▁góly	-11.3223
▁dohled	-11.3226
▁stanoven	-11.3226
▁krátkém	-11.3226
▁přednášky	-11.3227
▁ekonomika	-11.3228
▁výtvarník	-11.3229
volal	-11.3229
▁věřil	-11.3229
▁replik	-11.3239
▁vítězný	-11.3239
víra	-11.324
▁kříd	-11.324
uta	-11.3242
ç	-11.3243
▁alžběta	-11.3243
▁zřejmé	-11.3243
▁počátek	-11.3244
▁bohů	-11.3244
▁ekonomiky	-11.3244
▁bombardování	-11.3244
▁rychlejší	-11.3247
mok	-11.3249
auto	-11.325
work	-11.3252
▁lidskou	-11.3254
▁augustin	-11.3255
▁smyčk	-11.3257
bíd	-11.3258
▁senior	-11.3258
eva	-11.326
▁ray	-11.3261
počítal	-11.3261
▁laser	-11.3261
▁myšlenku	-11.3262
▁ukončila	-11.3263
▁−	-11.3263
bej	-11.3265
hrn	-11.3265
pomen	-11.3266
▁apple	-11.3266
▁jaký	-11.3267
▁vězňů	-11.3269
–14	-11.3269
▁game	-11.3273
▁obory	-11.3274
▁obchodního	-11.3276
▁formule	-11.3277
lja	-11.3279
uška	-11.328
▁výlet	-11.3281
▁vejce	-11.3281
armén	-11.3281
▁iniciativ	-11.3282
▁trpí	-11.3284
▁olympijský	-11.3285
okres	-11.3289
▁richarda	-11.3289
▁sparta	-11.329
sca	-11.3292
▁vzácné	-11.3294
▁bělehrad	-11.3294
▁schopna	-11.3295
▁pramení	-11.3295
átů	-11.3295
▁matku	-11.3295
▁šestnácti	-11.3295
tku	-11.3297
▁zadržen	-11.3298
▁květen	-11.3299
▁mírové	-11.33
▁statut	-11.33
-9	-11.3301
vill	-11.3302
výraz	-11.3303
▁žáky	-11.3304
▁spolupracovat	-11.3304
▁rozhodnutím	-11.3305
▁činu	-11.3305
▁zúčastnila	-11.3307
▁občanského	-11.3307
▁with	-11.3308
ostatní	-11.3308
▁chráněných	-11.3309
▁distriktu	-11.3311
▁zlatá	-11.3311
▁židovská	-11.3311
čák	-11.3313
tok	-11.3314
▁kolektiv	-11.3315
▁financování	-11.3315
eným	-11.3318
▁životem	-11.3318
▁def	-11.3319
▁australské	-11.3319
▁prvkem	-11.3319
▁sovětském	-11.332
▁čelní	-11.3321
▁studiové	-11.3322
roth	-11.3322
▁rozklad	-11.3323
▁domácího	-11.3323
etti	-11.3325
▁květu	-11.3327
▁moskevské	-11.3328
▁vyžádal	-11.3328
▁vánoční	-11.3328
▁švýcarsko	-11.3328
nell	-11.3329
▁mlado	-11.333
▁kanóny	-11.333
▁majitelů	-11.3331
ovem	-11.3332
tepl	-11.3333
▁postihl	-11.3334
hed	-11.3334
▁72	-11.3334
▁hnízdí	-11.3334
pic	-11.3337
dorf	-11.3337
utě	-11.3339
spol	-11.334
call	-11.334
▁vyšly	-11.3341
▁francouzským	-11.3343
▁www	-11.3344
▁veřejnou	-11.3344
▁třicátých	-11.3346
fyz	-11.3346
▁rakovin	-11.3346
▁organizátor	-11.3347
▁luis	-11.3349
▁soudem	-11.3349
tvo	-11.335
pyr	-11.3351
▁čepele	-11.3351
▁jackson	-11.3352
kavárn	-11.3355
▁moderátor	-11.3355
▁těl	-11.3359
jského	-11.3361
▁masakr	-11.3362
▁53	-11.3363
tického	-11.3364
▁zastaven	-11.3364
▁přesídlil	-11.3364
▁vyzval	-11.3365
pruž	-11.3366
▁výchozí	-11.3367
▁kombinací	-11.337
greg	-11.3372
▁posunul	-11.3375
▁filipín	-11.3376
rozen	-11.3377
▁vrácen	-11.3377
bírá	-11.3378
▁sudet	-11.3378
▁pronikl	-11.3378
▁počátky	-11.3378
▁sfér	-11.3379
▁horního	-11.3379
▁mříž	-11.338
▁stavěn	-11.338
praven	-11.3381
▁setkává	-11.3381
▁pojištění	-11.3382
▁zažil	-11.3382
▁próz	-11.3383
▁rovnic	-11.3383
▁1865	-11.3384
▁zbožím	-11.3384
kář	-11.3385
šice	-11.3387
▁tajný	-11.3387
▁zpravodaj	-11.339
dlem	-11.3391
cování	-11.3392
▁připravuje	-11.3395
▁lamp	-11.3397
▁endo	-11.3398
▁povědomí	-11.34
ć	-11.34
cap	-11.3401
▁dvojici	-11.3402
bád	-11.3403
▁kontroverzní	-11.3404
▁vláken	-11.3404
tica	-11.3404
▁raketoplánu	-11.3404
lování	-11.3405
är	-11.3406
▁vytvořený	-11.3408
▁dával	-11.3408
▁vrátili	-11.3409
▁bytost	-11.3412
▁analýza	-11.3413
kombi	-11.3414
▁krakov	-11.3414
gol	-11.3416
kyní	-11.3417
▁akademické	-11.3419
▁říšský	-11.3419
▁dělat	-11.3419
▁boeing	-11.3421
▁rodném	-11.3421
▁kibuc	-11.3421
▁madrid	-11.3422
▁cihl	-11.3422
nutý	-11.3424
hawk	-11.3425
▁poruchy	-11.3426
▁kampaně	-11.3429
▁generátor	-11.3432
▁sametové	-11.3434
tex	-11.3437
▁relativní	-11.344
▁extrémní	-11.3442
▁mapa	-11.3442
▁sklen	-11.3444
▁rozsáhlou	-11.3446
▁složit	-11.3446
▁režii	-11.3447
▁těžkých	-11.3449
▁vlaku	-11.345
▁výrazným	-11.3451
▁podává	-11.3451
▁finančně	-11.3455
▁vyžadují	-11.3455
▁římskokatolický	-11.3455
▁juli	-11.3456
▁pasivní	-11.3458
ujícího	-11.3462
ogenní	-11.3463
▁doubrav	-11.3463
▁mužstva	-11.3464
francouzsky	-11.3465
▁pastvin	-11.3465
▁nárůst	-11.3465
▁určeny	-11.3467
krab	-11.3467
▁cítí	-11.3468
▁příslušnost	-11.3468
▁eugen	-11.3471
cro	-11.3478
▁přepad	-11.3478
▁požadavek	-11.348
▁dobrou	-11.3482
▁fakticky	-11.3483
pól	-11.3484
▁speciálních	-11.3486
▁stavů	-11.3486
▁turistů	-11.3487
▁cyril	-11.3487
žíva	-11.3488
מ	-11.3489
▁kaplí	-11.3489
pes	-11.3491
▁zákazníků	-11.3491
bh	-11.3492
ářské	-11.3492
▁nahrazeny	-11.3494
život	-11.3496
▁hp	-11.3497
obor	-11.3497
▁zastavit	-11.3498
kázání	-11.3501
harmoni	-11.3504
▁nabízen	-11.3507
▁volebního	-11.3507
▁god	-11.3508
▁osy	-11.3508
▁mars	-11.3509
▁utekl	-11.3509
▁fronty	-11.351
▁vůle	-11.3511
hnutí	-11.3513
▁jistě	-11.3514
д	-11.3514
▁laboratoř	-11.3514
▁přesvědčen	-11.3514
▁katedrály	-11.3515
▁housle	-11.3515
▁kdežto	-11.3515
▁udělat	-11.3515
▁pracoviště	-11.3515
především	-11.3517
thi	-11.3517
sport	-11.3519
rian	-11.352
▁1855	-11.3521
▁hradby	-11.3521
▁těm	-11.3522
▁fyziolog	-11.3524
alizace	-11.3525
elných	-11.3528
stěhoval	-11.3529
▁miss	-11.3529
▁panovníka	-11.3532
▁manévr	-11.3532
▁slabší	-11.3532
pru	-11.3533
lg	-11.3534
▁dramatik	-11.3534
▁přidává	-11.3537
▁průměrně	-11.3537
▁0,5	-11.3537
vlákn	-11.3538
▁pána	-11.3539
likvid	-11.354
▁krajských	-11.354
▁remíz	-11.354
▁nedlouho	-11.3541
▁usnesení	-11.3541
▁univerzální	-11.3541
▁1877	-11.3544
▁protáhl	-11.3547
▁módní	-11.3548
▁zobrazuje	-11.3549
▁uskutečněn	-11.3549
▁intel	-11.3551
▁menším	-11.3551
▁kvalifikační	-11.3551
flor	-11.3553
▁filosofii	-11.3553
▁victor	-11.3554
▁taj	-11.3558
▁nejnovější	-11.3558
▁trenérem	-11.3559
něk	-11.3561
bulhar	-11.3562
▁hraní	-11.3563
▁terén	-11.3563
▁petrov	-11.3566
▁opozice	-11.3567
hnal	-11.3567
▁osobním	-11.3567
inov	-11.3567
▁civilizace	-11.3567
ld	-11.3568
poslech	-11.3568
▁možných	-11.3569
ssel	-11.3571
▁napříč	-11.3571
▁symboly	-11.3571
nášejí	-11.3574
▁porost	-11.3575
▁vzlétl	-11.3575
▁kritizován	-11.3576
▁bankovní	-11.3576
▁webové	-11.3576
▁farma	-11.3578
▁pohybují	-11.3578
▁potřeboval	-11.3579
ult	-11.3579
▁kontroly	-11.3579
▁směsi	-11.358
tig	-11.3581
▁nález	-11.3581
▁pomocný	-11.3581
▁zastřelen	-11.3582
▁čestný	-11.3584
▁nízká	-11.3584
▁jihočeské	-11.3584
▁vězni	-11.3586
▁psů	-11.3586
raf	-11.3588
▁river	-11.3588
run	-11.359
kolej	-11.359
ovacím	-11.3591
▁žánru	-11.3591
▁australian	-11.3593
▁odstěhoval	-11.3595
▁připojena	-11.3595
▁chudé	-11.3596
▁nějž	-11.3596
opt	-11.3597
▁docent	-11.3597
▁spoje	-11.3598
▁uzavřený	-11.36
▁slávy	-11.3601
istického	-11.3601
▁wel	-11.3603
core	-11.3604
▁oprávněn	-11.3606
▁začleněn	-11.3608
▁postupy	-11.3609
▁odešla	-11.361
▁využívány	-11.3611
▁dramatické	-11.3611
čou	-11.3612
▁vítkov	-11.3612
▁iniciativy	-11.3613
▁provozován	-11.3616
hold	-11.3616
▁faktory	-11.3618
text	-11.3618
▁zobák	-11.362
"".	-11.3622
▁ateliéru	-11.3622
▁egyptské	-11.3624
françois	-11.3627
▁sydney	-11.3627
▁elektromagnet	-11.3627
▁uspěl	-11.3627
▁mlhovin	-11.3628
▁trvající	-11.3628
▁band	-11.3628
▁zjištěno	-11.3629
▁podobným	-11.363
▁vyšším	-11.363
škov	-11.3632
livý	-11.3632
▁divadelních	-11.3633
▁stanley	-11.3634
▁slovenských	-11.3636
tern	-11.3636
▁dělá	-11.3636
▁čt	-11.3638
▁lékaře	-11.3638
▁odhalen	-11.3638
▁gregor	-11.364
▁stanovil	-11.364
▁metry	-11.3641
▁xvi	-11.3641
▁vedena	-11.3644
tiš	-11.3645
želez	-11.3645
▁zájmů	-11.3645
▁byzantské	-11.3645
▁prvotní	-11.3645
▁objevoval	-11.3647
▁metro	-11.3648
kart	-11.3649
▁desek	-11.3651
▁použito	-11.3652
▁zdeňka	-11.3653
▁zvolena	-11.3653
▁klenbou	-11.3654
▁schopni	-11.3654
▁vajíčka	-11.3654
ickému	-11.3655
▁nechala	-11.3655
▁projevy	-11.3656
▁indické	-11.3657
▁teplé	-11.3657
▁belgii	-11.3657
▁silnic	-11.3658
▁andrej	-11.366
▁vykonává	-11.366
▁metr	-11.3661
kř	-11.3661
▁uskupení	-11.3662
▁vnitrozemí	-11.3662
ardi	-11.3662
▁sehrál	-11.3663
krat	-11.3663
▁wol	-11.3665
▁sergej	-11.3666
▁umělec	-11.3668
laj	-11.3668
▁dohoda	-11.367
▁přijmout	-11.3671
▁prokop	-11.3671
▁radní	-11.3673
▁rozšířený	-11.3673
▁kontinentální	-11.3676
▁1800	-11.3676
▁jimi	-11.3676
▁poválečné	-11.3679
▁ohraničen	-11.3679
▁maďarsku	-11.368
▁takřka	-11.368
▁červeno	-11.368
▁selhání	-11.368
▁vozidlo	-11.368
▁akademický	-11.368
hus	-11.368
roll	-11.3681
▁pravděpodobné	-11.3682
phi	-11.3687
sová	-11.3687
▁oleje	-11.3687
▁primárně	-11.3688
tax	-11.3689
▁vnitřních	-11.3689
▁povrchem	-11.3689
ender	-11.369
▁hráli	-11.3691
▁kai	-11.3693
▁podloží	-11.3693
pid	-11.3693
▁červeného	-11.3694
lah	-11.3695
▁jednotné	-11.3696
▁všeho	-11.3696
kuje	-11.3696
▁gö	-11.3697
▁jednotkou	-11.3697
▁rap	-11.3698
▁rachel	-11.3698
▁budějovicích	-11.3698
▁jane	-11.3698
▁útěk	-11.3699
▁tvrdý	-11.3701
▁fair	-11.3701
▁marin	-11.3701
▁americkým	-11.3702
▁mluvící	-11.3703
[	-11.3704
▁husitských	-11.3707
▁reflex	-11.3708
▁frei	-11.3708
▁rabín	-11.3709
▁kolegy	-11.3709
tinu	-11.3709
▁celkovém	-11.371
▁facto	-11.3714
▁dozví	-11.3714
▁jáchym	-11.3714
▁císařského	-11.3717
dance	-11.3718
jíždí	-11.3719
▁odehrála	-11.3719
kládání	-11.3721
žívají	-11.3722
▁gaz	-11.3722
▁řadách	-11.3724
▁czech	-11.3726
▁bílých	-11.3726
▁vojsky	-11.3728
▁postižen	-11.373
▁dohodu	-11.3731
time	-11.3733
deutsche	-11.3734
▁vinohrad	-11.3734
▁set	-11.3739
▁papežem	-11.3739
znal	-11.3739
▁johnson	-11.374
prez	-11.3741
vert	-11.3741
▁plánoval	-11.3742
▁pošt	-11.3743
▁slovní	-11.3745
▁plemen	-11.3747
▁zemědělských	-11.3748
uda	-11.3749
▁dekret	-11.375
▁zapojení	-11.3751
▁zjištění	-11.3752
▁times	-11.3753
▁skupinách	-11.3753
čené	-11.3753
▁orientace	-11.3754
▁kopie	-11.3755
izovaná	-11.3757
▁databáze	-11.3758
▁pokémon	-11.3758
▁eric	-11.3759
▁fab	-11.3762
▁uvolnění	-11.3762
▁svazku	-11.3763
▁silná	-11.3763
▁vlákna	-11.3763
▁titulní	-11.3763
plác	-11.3765
“".	-11.3765
kém	-11.3767
▁dramaturg	-11.3767
▁prostorách	-11.3769
▁severních	-11.3769
▁teď	-11.377
▁skok	-11.3771
acht	-11.3771
sit	-11.3771
ucha	-11.3773
neapol	-11.3773
▁írán	-11.3774
▁rallye	-11.3776
▁evangelické	-11.3777
jó	-11.3778
funk	-11.3779
▁mramor	-11.3779
byla	-11.378
▁rytířů	-11.378
▁beta	-11.378
▁souvislost	-11.3783
js	-11.3784
landu	-11.3785
▁kulomet	-11.3785
▁nemocí	-11.3785
▁markéta	-11.3787
▁starou	-11.3787
▁křídle	-11.379
▁sedmé	-11.3791
▁hradeb	-11.3792
▁east	-11.3793
▁vizuální	-11.3794
▁plic	-11.38
špa	-11.3801
tetra	-11.3801
trval	-11.3801
íka	-11.3802
sperm	-11.3803
ias	-11.3809
▁údolím	-11.3811
▁folk	-11.3814
▁aleš	-11.3814
▁obavy	-11.3814
▁pásmo	-11.3815
▁nick	-11.3816
▁morální	-11.3816
mol	-11.3817
stre	-11.3818
на	-11.3819
▁ivana	-11.382
▁ptačí	-11.382
▁vyspěl	-11.3821
pohádk	-11.3821
kins	-11.3821
▁výzbroje	-11.3821
svit	-11.3823
▁sestup	-11.3824
tovi	-11.3825
▁mich	-11.3826
▁šum	-11.3826
česká	-11.3826
▁zkratka	-11.3826
▁židovský	-11.3829
▁budapešti	-11.3829
ish	-11.383
▁melodi	-11.3833
knutí	-11.3835
▁jakékoliv	-11.3836
▁egyptě	-11.3836
▁člověkem	-11.3836
ppe	-11.3837
▁blat	-11.3837
▁přispíval	-11.3838
▁špatný	-11.3838
ivá	-11.3839
íně	-11.3844
▁podobá	-11.3844
praví	-11.3845
pisuje	-11.3846
▁přizpůsoben	-11.3847
▁končetin	-11.3848
▁nevýhod	-11.3851
▁oborů	-11.3855
▁bojích	-11.3856
▁historická	-11.3856
▁sousedství	-11.3857
▁mozart	-11.3858
program	-11.3858
▁propust	-11.3859
▁můžete	-11.3861
▁vlastníkem	-11.3861
éra	-11.3862
▁úloh	-11.3863
à	-11.3865
▁mohutný	-11.3865
▁hospodaření	-11.3865
▁základně	-11.3866
▁vyděl	-11.3867
▁tvořící	-11.3868
▁matematiky	-11.3868
▁ligové	-11.3868
tp	-11.3869
přesněji	-11.3869
▁člun	-11.387
▁zdarma	-11.3874
jedna	-11.3875
▁úmysl	-11.3876
žíval	-11.3877
▁tady	-11.3878
stri	-11.3879
mezi	-11.3879
▁prodalo	-11.3881
under	-11.3882
▁krumlov	-11.3883
▁kritické	-11.3886
▁bouře	-11.3888
čků	-11.3889
▁velikostí	-11.3889
▁rozmístěn	-11.3891
germán	-11.3892
▁unix	-11.3892
▁spojenci	-11.3893
inf	-11.3894
átoři	-11.3894
ovně	-11.3895
▁situován	-11.3897
▁hun	-11.3899
▁církevních	-11.3899
rii	-11.39
▁jedenácti	-11.39
▁naděje	-11.3901
pěv	-11.3903
▁filmových	-11.3903
▁obchodním	-11.3904
▁rozhodování	-11.3904
▁vysokoškolský	-11.3904
▁biskupství	-11.3905
ovitého	-11.3906
hab	-11.3906
▁stíhač	-11.3911
▁57	-11.3911
▁výzkumy	-11.3912
▁tlakem	-11.3912
▁hl	-11.3913
▁kyselina	-11.3913
▁scénu	-11.3914
▁kateřiny	-11.3915
▁praž	-11.3916
▁jemuž	-11.3918
▁rekonstrukcí	-11.3918
xe	-11.3918
▁řecku	-11.3919
▁podporován	-11.3919
▁julie	-11.3919
dav	-11.392
▁vaku	-11.392
▁útěku	-11.3925
▁java	-11.3925
▁odstoupil	-11.3925
▁debutové	-11.3926
▁niž	-11.3927
▁průkopník	-11.3927
▁radek	-11.3928
▁audi	-11.3928
rr	-11.3932
ough	-11.3933
kovský	-11.3935
▁emigroval	-11.3936
▁vytvářel	-11.3936
▁felix	-11.3936
▁jedinec	-11.3936
▁dojem	-11.3937
▁ponor	-11.3937
▁úspor	-11.3939
▁římané	-11.394
▁přeměněn	-11.3941
fy	-11.3941
lád	-11.3942
▁provozoval	-11.3943
▁řecký	-11.3945
▁démon	-11.3946
▁švýcarska	-11.3946
▁fat	-11.3947
původně	-11.3948
▁vraždy	-11.3948
zbroj	-11.3951
▁britskou	-11.3952
▁chovatel	-11.3953
▁probíhal	-11.3954
▁hop	-11.3955
▁lud	-11.3956
▁podob	-11.3958
▁malířství	-11.3959
adel	-11.3959
▁kontakty	-11.3959
střih	-11.3961
uji	-11.3961
▁souostroví	-11.3963
▁svědectví	-11.3963
▁úspěšná	-11.3963
▁sériové	-11.3963
▁údaj	-11.3964
ičkou	-11.3966
▁lince	-11.3968
▁planetě	-11.3969
▁kritiků	-11.397
▁vyjádřit	-11.3972
▁tvořit	-11.3972
▁jednotku	-11.3974
ády	-11.3975
rip	-11.3978
▁pia	-11.3979
▁provozovatel	-11.398
▁pozor	-11.3982
▁přiznal	-11.3987
▁nasa	-11.3987
izují	-11.3988
▁vyměněn	-11.3989
▁nebezpečné	-11.399
počet	-11.3991
▁výraznou	-11.3992
▁popisu	-11.3992
rain	-11.3994
▁dunaj	-11.3994
▁igor	-11.3999
▁odděluje	-11.3999
▁klenby	-11.4
solid	-11.4001
▁nechat	-11.4001
▁přehrad	-11.4003
spolu	-11.4004
▁francouzském	-11.4004
▁františkán	-11.4006
▁literatura	-11.4008
▁správou	-11.4008
▁uzlů	-11.4008
▁prostředek	-11.4009
xen	-11.401
▁ulicí	-11.401
▁mladšího	-11.401
▁poměry	-11.4011
hand	-11.4012
▁válc	-11.4012
▁*	-11.4015
▁makro	-11.4016
cid	-11.4016
▁vyvíjen	-11.4017
▁podmíněn	-11.4017
▁snažila	-11.4017
orum	-11.4017
▁vrchnost	-11.4018
▁náhrad	-11.4019
öl	-11.4019
▁135	-11.4019
něm	-11.4019
nel	-11.4021
▁přijímá	-11.4022
▁ferr	-11.4023
▁vojskem	-11.4024
enství	-11.4025
sláv	-11.4025
▁bílkovin	-11.4026
▁obdobně	-11.4026
▁obrácen	-11.4026
▁kyslíku	-11.4027
▁krajina	-11.4028
▁spravoval	-11.4029
▁bach	-11.4029
▁řešen	-11.4031
▁sportovních	-11.4031
▁jeseník	-11.4032
▁beneš	-11.4033
lera	-11.4033
áka	-11.4033
▁atmosféry	-11.4036
▁pardubice	-11.4037
počítat	-11.4038
▁královská	-11.4038
enne	-11.4039
škál	-11.4039
▁ochranné	-11.404
pav	-11.404
▁násled	-11.4042
▁tou	-11.4044
▁suchý	-11.4044
▁generaci	-11.4045
▁žáci	-11.4045
▁nohou	-11.4046
▁hranicí	-11.4049
▁paula	-11.4051
▁českými	-11.4051
â	-11.4053
▁odboru	-11.4053
▁šířky	-11.4054
▁pilotní	-11.4054
▁veden	-11.4055
▁tajemníkem	-11.4056
▁kolektivní	-11.4058
▁rozhoduje	-11.4058
▁vydalo	-11.4059
▁vznikem	-11.406
▁krajský	-11.4062
▁zůstával	-11.4063
raš	-11.4063
volat	-11.4065
endorf	-11.4066
rue	-11.4066
▁medailí	-11.4067
▁pik	-11.407
▁mala	-11.4071
žní	-11.4072
▁homo	-11.4072
důvod	-11.4073
plout	-11.4074
▁pic	-11.4077
▁populaci	-11.4081
▁dívčí	-11.4081
moravsko	-11.4082
▁boy	-11.4083
▁fara	-11.4087
▁poloostrova	-11.4088
ital	-11.4089
▁bakterie	-11.409
▁životu	-11.409
▁slabě	-11.4091
▁procesor	-11.4092
▁ztrát	-11.4093
stream	-11.4095
▁kouř	-11.4096
▁dobrovol	-11.4097
▁vyráběla	-11.4098
▁rovno	-11.4098
mut	-11.4099
▁nežádoucí	-11.4099
▁vyústil	-11.4099
▁frontu	-11.4099
hymn	-11.4099
▁výškou	-11.41
▁vzájemný	-11.4101
▁národnostní	-11.4102
zkoumá	-11.4102
▁irské	-11.4103
▁oblíbeným	-11.4103
▁kompletně	-11.4106
rové	-11.4107
▁bydlení	-11.4108
▁hrobu	-11.4108
▁technikou	-11.411
sít	-11.4111
▁vid	-11.4111
▁komunistického	-11.4112
▁dvouhry	-11.4112
kde	-11.4113
▁neshod	-11.4116
▁vesmírné	-11.4117
▁náročné	-11.4117
▁uprchnout	-11.4117
▁přerušil	-11.4117
▁proveden	-11.4117
▁otevřený	-11.4118
▁zaměřené	-11.4118
▁bránit	-11.412
pend	-11.4121
▁kapitál	-11.4123
▁únos	-11.4124
▁personál	-11.4125
▁měsíční	-11.4128
áno	-11.413
▁she	-11.4131
▁bé	-11.4134
ňat	-11.4134
▁necelých	-11.4135
▁jamese	-11.4135
▁přejmenoval	-11.4135
▁admirál	-11.4135
än	-11.4135
▁pouhé	-11.4137
▁zabije	-11.4137
▁maxmilián	-11.4139
▁postižení	-11.4139
wh	-11.414
▁jacques	-11.4142
▁františkem	-11.4144
▁udržení	-11.4144
▁pachatel	-11.4145
▁nosí	-11.4146
tisíc	-11.4147
▁opatství	-11.4147
▁orientaci	-11.4148
ěj	-11.4152
▁kostelů	-11.4152
elu	-11.4153
▁aplikaci	-11.4154
▁funkcionář	-11.4154
bank	-11.4154
▁významného	-11.4155
▁krup	-11.4157
nitz	-11.4157
▁vypukl	-11.4157
▁úspěchů	-11.4158
▁otisk	-11.4158
▁mess	-11.4158
▁normy	-11.416
kníž	-11.4161
▁synovi	-11.4161
▁caesar	-11.4163
▁písku	-11.4164
▁alkoholu	-11.4164
▁box	-11.4165
anov	-11.4167
hlavně	-11.4167
▁skládal	-11.4168
▁rozp	-11.4168
eur	-11.4169
▁vad	-11.4169
sadit	-11.4169
▁působením	-11.417
áň	-11.417
klimat	-11.417
▁rozhodlo	-11.4171
uše	-11.4172
▁osobě	-11.4172
▁fischer	-11.4172
vše	-11.4173
▁saz	-11.4173
▁možný	-11.4175
bos	-11.4176
▁samostatného	-11.4177
▁hodinu	-11.4178
krut	-11.418
▁výrobou	-11.418
tlačil	-11.4181
onů	-11.4182
▁islám	-11.4185
inský	-11.4185
patri	-11.4185
▁nejhorší	-11.419
▁štefan	-11.419
-0	-11.419
▁řecka	-11.4192
rovnat	-11.4192
▁sestru	-11.4194
▁domech	-11.4195
omy	-11.4198
▁zvaná	-11.4201
▁ukrajiny	-11.4203
▁čsad	-11.4207
▁podílela	-11.4207
▁volen	-11.4207
▁problémům	-11.4208
▁vyrábějí	-11.4209
▁léčbě	-11.4209
ázy	-11.421
▁realizace	-11.4213
▁dlouhými	-11.4215
kri	-11.4215
▁staral	-11.4216
▁odvolán	-11.4216
▁camp	-11.4216
▁bohužel	-11.4218
▁úpravě	-11.4218
▁ozbrojených	-11.422
▁bak	-11.4222
nců	-11.4224
verg	-11.4224
ive	-11.4226
▁římský	-11.4227
‘	-11.4227
▁mexiku	-11.4227
▁dutin	-11.4232
klub	-11.4234
ß	-11.4234
▁organismu	-11.4235
▁africké	-11.4237
▁řekou	-11.4238
▁osobu	-11.4238
▁půdách	-11.4238
▁kultur	-11.4238
▁vyvolal	-11.424
bán	-11.4244
–5	-11.4244
jednal	-11.4244
mýšl	-11.4245
▁mechanické	-11.4245
▁odchyl	-11.4247
▁týče	-11.4248
út	-11.4251
▁hnědý	-11.4251
▁sojuz	-11.4252
▁sovětských	-11.4254
▁přísně	-11.4255
▁povídek	-11.4255
padající	-11.4255
▁přístupný	-11.4256
památ	-11.4256
▁syndrom	-11.4256
elské	-11.4257
▁trestné	-11.4258
výslovnost	-11.426
▁soustředěn	-11.426
dow	-11.4263
ы	-11.4264
▁čínský	-11.4265
▁objednal	-11.4266
▁cupu	-11.4268
▁čechů	-11.4268
▁geologické	-11.4269
▁průmyslových	-11.4269
▁1:0	-11.4272
▁starším	-11.4272
lana	-11.4272
▁lidová	-11.4273
▁minerální	-11.4273
▁nanebevzetí	-11.4273
▁kariéra	-11.4273
▁investiční	-11.4274
▁fregat	-11.4274
▁paris	-11.4274
▁irsku	-11.4275
▁uherský	-11.4275
▁kostr	-11.4276
▁south	-11.4276
vln	-11.4281
▁manifest	-11.4283
perspektiv	-11.4283
▁základna	-11.4283
▁pastor	-11.4283
▁složité	-11.4284
▁porazila	-11.4285
▁gólů	-11.4286
antu	-11.4288
ňující	-11.4288
▁jaro	-11.429
▁bychom	-11.4292
▁vlhké	-11.4292
▁krátkých	-11.4292
nského	-11.4293
▁skrz	-11.4293
pyl	-11.4293
idla	-11.4294
elů	-11.4296
▁výhody	-11.4296
rium	-11.4299
▁majet	-11.43
plan	-11.4301
▁ruskou	-11.4301
▁snímků	-11.4302
▁železný	-11.4302
alb	-11.4302
▁stavět	-11.4303
▁důležitých	-11.4304
▁desce	-11.4304
▁zajišťují	-11.4304
▁spolupracovník	-11.4305
▁jiřím	-11.4306
dvoj	-11.4309
▁plodů	-11.4311
▁složek	-11.4311
▁sloučen	-11.4312
▁rozporu	-11.4315
tyrol	-11.4315
▁1945.	-11.4316
▁podobnou	-11.4316
▁občanská	-11.4317
pk	-11.4318
▁webu	-11.4318
▁postoje	-11.4319
▁spirál	-11.432
▁odhalil	-11.4321
inského	-11.4321
▁kněžiště	-11.4321
ales	-11.4322
▁kusy	-11.4322
wil	-11.4327
▁proměnné	-11.4327
▁odraz	-11.4328
here	-11.4329
rák	-11.4329
▁tekutin	-11.4329
▁final	-11.433
▁prudce	-11.433
hygien	-11.433
▁délkou	-11.433
▁zbylé	-11.4331
▁moravu	-11.4333
▁ptá	-11.4333
▁besed	-11.4335
dává	-11.4336
▁máme	-11.4336
▁pádem	-11.4336
ičtější	-11.4336
▁pohan	-11.4338
▁účastník	-11.4338
▁svatební	-11.4339
▁komet	-11.434
její	-11.434
▁polských	-11.4341
eckých	-11.4341
▁víta	-11.4343
lb	-11.4344
▁vyznačen	-11.4345
▁lgbt	-11.4348
▁nastává	-11.4349
▁založit	-11.4349
enční	-11.4354
obil	-11.4357
slun	-11.4357
▁okupaci	-11.4357
▁stezky	-11.4357
▁vyvýšen	-11.4357
▁mužstvo	-11.4358
▁krvi	-11.4361
▁páně	-11.4363
přístup	-11.4364
zbyt	-11.4366
▁mandátů	-11.4366
▁rebel	-11.4366
cur	-11.4366
?"	-11.4366
▁počítači	-11.4367
▁zvolení	-11.4367
▁používali	-11.4368
▁kilometr	-11.4369
▁divoké	-11.4369
▁lili	-11.4369
mela	-11.437
▁objevovat	-11.437
▁šok	-11.437
▁savců	-11.4371
lian	-11.4371
hs	-11.4372
střelil	-11.4374
čítal	-11.4375
▁herci	-11.4375
▁clark	-11.4376
▁muzejní	-11.4376
▁enterprise	-11.4376
▁pryč	-11.4376
▁2007.	-11.4376
▁znalostí	-11.4379
▁antické	-11.4379
▁palivo	-11.438
▁zpěvu	-11.438
klik	-11.4381
▁wood	-11.4383
▁mezer	-11.4383
říš	-11.4384
▁židovskému	-11.4384
▁trpaslík	-11.4385
▁vyvrcholil	-11.4385
▁procházel	-11.4385
▁stejnopohlavní	-11.4386
▁sestavě	-11.4386
▁výprava	-11.4387
▁dřeviny	-11.4388
host	-11.4388
▁krajině	-11.4388
▁vodního	-11.4388
moravské	-11.4389
áče	-11.439
▁big	-11.4392
▁korunu	-11.4392
▁jon	-11.4392
▁trolejbus	-11.4392
▁návrhů	-11.4393
▁management	-11.4393
▁rozpuštěn	-11.4394
fest	-11.4394
▁plodin	-11.4395
vzdor	-11.4396
▁vzít	-11.4396
bergu	-11.4397
žné	-11.4397
▁nezná	-11.4397
▁hms	-11.4399
court	-11.4399
moravská	-11.4402
▁přeložil	-11.4403
ráží	-11.4403
▁udělena	-11.4404
▁vyhrazen	-11.4404
rice	-11.4405
▁našeho	-11.4405
▁berlína	-11.4405
gus	-11.4409
▁výstavní	-11.441
▁vydaný	-11.441
soft	-11.441
▁badatel	-11.4411
pta	-11.4411
iální	-11.4411
▁rozděleno	-11.4411
plán	-11.4412
klíč	-11.4412
▁obsahovala	-11.4417
▁horniny	-11.4421
▁vladimíra	-11.4422
▁jeřáb	-11.4423
▁nezbytné	-11.4423
kův	-11.4426
▁(0	-11.4426
▁poslání	-11.4427
váz	-11.4429
▁minulého	-11.4431
▁domácnosti	-11.4431
▁abstraktní	-11.4432
▁převzetí	-11.4432
▁zvýšit	-11.4432
▁zřetel	-11.4432
▁získával	-11.4433
▁nepříliš	-11.4433
jon	-11.4433
▁kapelu	-11.4434
hodnost	-11.4435
▁víno	-11.4435
cko	-11.4436
▁převratu	-11.4437
▁chile	-11.4437
▁pavlov	-11.4438
▁daní	-11.4438
▁force	-11.4439
▁čtvrtém	-11.444
čes	-11.4442
▁pravoslavné	-11.4442
▁vůli	-11.4442
▁johanna	-11.4442
popular	-11.4444
▁sedlák	-11.4446
illy	-11.4446
▁1859	-11.4447
▁opouští	-11.4447
▁%,	-11.4447
▁včas	-11.4449
▁prodeji	-11.4449
▁sérií	-11.4449
▁spojeno	-11.4451
ת	-11.4451
▁kontejner	-11.4451
▁poslanci	-11.4451
▁rozmnožování	-11.4451
▁jímž	-11.4451
▁cro	-11.4453
▁plní	-11.4455
důvěr	-11.4456
▁šim	-11.4456
▁tisíci	-11.4456
amin	-11.4457
▁pozván	-11.4457
jeho	-11.446
vější	-11.4461
▁cech	-11.4462
▁kanada	-11.4462
▁horních	-11.4463
▁elektrického	-11.4463
▁univerzit	-11.4464
▁prá	-11.4464
▁vylepšen	-11.4464
ánského	-11.4465
▁propadl	-11.4467
▁katastrálního	-11.4467
▁ohně	-11.447
▁ovlivňuje	-11.447
▁aktivita	-11.4471
▁řečeno	-11.4472
thu	-11.4474
méd	-11.4476
▁jun	-11.4478
wick	-11.4479
▁kristián	-11.448
▁kamenů	-11.4481
jang	-11.4481
-11	-11.4482
simul	-11.4482
▁kolik	-11.4486
domin	-11.4486
▁způsobené	-11.4486
▁studen	-11.4486
profesionál	-11.4487
▁příležitostně	-11.4487
▁večerní	-11.4488
▁důvody	-11.4488
▁odstranit	-11.449
▁infi	-11.4491
▁poddruh	-11.4491
▁závislost	-11.4491
▁zařazena	-11.4491
▁kompozice	-11.4493
▁nálad	-11.4494
▁mešit	-11.4495
▁chlapce	-11.4495
▁nástupem	-11.4496
▁bejt	-11.4497
▁vědců	-11.4498
▁1830	-11.4498
▁thi	-11.4499
▁španělského	-11.45
mohl	-11.45
▁rozšiřování	-11.4502
rky	-11.4502
jihovýchod	-11.4503
▁lobkovic	-11.4504
▁ručně	-11.4505
▁norma	-11.4507
▁kyslík	-11.4507
levic	-11.4507
hrát	-11.4508
▁priorit	-11.4508
▁režie	-11.4508
▁lot	-11.4509
▁nalezení	-11.451
▁křížení	-11.4511
▁vzlet	-11.4513
fan	-11.4514
psaná	-11.4515
gren	-11.4516
▁sázavou	-11.4516
▁útoků	-11.4517
▁doporučuje	-11.4517
▁inscenace	-11.4517
▁žižkov	-11.4517
▁donutil	-11.4519
▁zpíval	-11.452
▁napsala	-11.452
▁dalo	-11.4523
▁raketoplán	-11.4526
▁kate	-11.4526
▁bratrů	-11.4527
které	-11.4528
box	-11.4528
▁principy	-11.4528
sd	-11.453
ánu	-11.4532
kk	-11.4533
▁frakce	-11.4534
synteti	-11.4535
anna	-11.4536
ра	-11.4536
stavuje	-11.4536
▁vodopád	-11.4537
▁služební	-11.4537
▁typická	-11.4541
▁rodové	-11.4541
▁hrálo	-11.4542
▁těleso	-11.4542
▁valentin	-11.4544
prost	-11.4545
▁skryt	-11.4545
▁krizi	-11.4546
▁komora	-11.4546
▁výtah	-11.4548
▁pohřeb	-11.4548
▁masarykovy	-11.4548
dur	-11.4551
▁rovnost	-11.4552
▁pozná	-11.4552
eze	-11.4553
▁louky	-11.4554
▁příp	-11.4555
▁ibm	-11.4555
▁optim	-11.4555
▁dosaženo	-11.4556
▁nesoucí	-11.4556
▁řep	-11.4558
▁vlevo	-11.4559
▁použité	-11.4559
nal	-11.456
▁vesmír	-11.456
katolická	-11.4562
▁studovala	-11.4565
▁značkou	-11.4565
▁licenci	-11.4565
▁schwarzenberg	-11.4565
▁vezme	-11.4567
petr	-11.4567
▁společnou	-11.457
▁setká	-11.457
duet	-11.4571
koval	-11.4572
severozápad	-11.4573
žír	-11.4574
▁aspekt	-11.4575
ega	-11.4575
▁hlasy	-11.4576
▁kytarista	-11.4576
▁donucen	-11.4576
prim	-11.4578
▁plamen	-11.4579
▁prorok	-11.458
cd	-11.4581
éz	-11.4583
▁metropolitní	-11.4584
▁end	-11.4585
▁vyráběný	-11.4585
▁nutnost	-11.4586
▁kopií	-11.4588
▁pásmu	-11.4589
elnost	-11.459
▁ztráta	-11.4592
▁arcivévod	-11.4594
chlorid	-11.4595
▁výstavbou	-11.4595
▁značí	-11.4595
▁dohodě	-11.4595
▁thor	-11.4596
▁švédska	-11.4596
▁montáž	-11.4597
▁zvýšené	-11.4598
▁finsko	-11.4599
▁součásti	-11.4599
bia	-11.4602
▁plukovník	-11.4603
▁oblouku	-11.4603
třídní	-11.4603
▁mai	-11.4603
▁elit	-11.4603
▁celoživotní	-11.4603
▁pořídil	-11.4603
▁vegetace	-11.4603
stři	-11.4604
▁markýz	-11.4604
▁klubů	-11.4606
▁lípy	-11.4608
lena	-11.4611
píná	-11.4612
▁angličan	-11.4613
gp	-11.4614
▁potomky	-11.4614
▁šťastný	-11.4615
▁ano	-11.4617
▁komín	-11.4621
▁semináře	-11.4621
▁středomoří	-11.4623
▁příjmů	-11.4623
market	-11.4623
▁modernizace	-11.4624
▁andrew	-11.4624
arn	-11.4626
gem	-11.4628
myr	-11.4631
▁jíž	-11.4632
▁prus	-11.4633
▁volání	-11.4634
▁výkonný	-11.4636
unt	-11.4638
▁kroky	-11.464
▁románů	-11.464
▁slaví	-11.4642
▁biotop	-11.4643
ego	-11.4643
tara	-11.4644
▁konrád	-11.4644
▁odkoupil	-11.4645
stává	-11.4645
▁blízkém	-11.4646
▁poslance	-11.4647
▁barvou	-11.4649
▁rodák	-11.465
▁bicí	-11.4651
▁uher	-11.4651
▁provizorní	-11.4651
▁okno	-11.4652
▁konceptu	-11.4652
▁fantasy	-11.4654
▁přímým	-11.4654
▁scénáře	-11.4655
▁cenou	-11.466
girl	-11.466
▁helm	-11.466
řeč	-11.4661
▁kresby	-11.4661
▁zdolal	-11.4662
▁rektor	-11.4662
prostor	-11.4665
trp	-11.4666
▁ruky	-11.4668
▁vlad	-11.4669
▁rob	-11.467
▁fenomén	-11.4671
▁nebezpečný	-11.4671
▁vyznačují	-11.4671
▁chránit	-11.4671
▁spáchal	-11.4671
roc	-11.4671
▁architektura	-11.4672
▁barb	-11.4672
čching	-11.4672
▁přece	-11.4673
▁řeší	-11.4673
úd	-11.4674
točit	-11.4674
▁zaměstnán	-11.4675
▁julius	-11.4677
rica	-11.4677
▁řapík	-11.4677
▁napadení	-11.4677
▁rozpor	-11.4679
▁hospodářských	-11.4679
sovi	-11.4679
▁týdnu	-11.468
▁postupoval	-11.4681
▁konzervatoři	-11.4682
▁lázní	-11.4682
▁prodával	-11.4685
▁vrt	-11.4686
5%	-11.4686
▁dílčí	-11.4686
trap	-11.469
▁magn	-11.469
just	-11.4691
nb	-11.4692
▁vysazen	-11.4693
▁unikl	-11.4695
modern	-11.4697
tla	-11.4699
skočil	-11.47
▁chemie	-11.4702
300	-11.4706
▁sídel	-11.4707
▁zápisu	-11.4707
icus	-11.4707
▁pokyn	-11.4707
víř	-11.4709
▁drav	-11.4711
▁žlutá	-11.4711
▁pivo	-11.4713
▁lake	-11.4713
▁účinnost	-11.4713
ětín	-11.4714
▁složitější	-11.4714
oři	-11.4714
▁pokusí	-11.4715
▁štítu	-11.4717
stel	-11.4717
▁london	-11.472
saze	-11.4722
bauer	-11.4722
▁stroji	-11.4723
right	-11.4723
snad	-11.4724
▁wilson	-11.4724
více	-11.4725
▁kytaru	-11.4727
▁získané	-11.4729
▁domníval	-11.4729
▁krátká	-11.473
▁ohrožené	-11.473
minut	-11.473
▁spadal	-11.473
ečky	-11.4731
▁jordánu	-11.4734
▁bohyně	-11.4734
▁omezený	-11.4735
ago	-11.4736
knut	-11.4736
▁pojmu	-11.4737
▁informaci	-11.4739
▁pěstuje	-11.4739
▁domorod	-11.474
americký	-11.474
▁způsobilo	-11.4741
▁unii	-11.4743
▁clo	-11.4744
rovi	-11.4744
▁platin	-11.4745
členné	-11.4745
▁určeno	-11.4745
ifikace	-11.4745
stabil	-11.4746
▁grant	-11.4746
erovi	-11.4746
provin	-11.4747
pus	-11.4748
▁katedrále	-11.4748
▁příhod	-11.4749
▁arkád	-11.4749
▁podporovat	-11.4749
▁koloniální	-11.4749
▁listině	-11.4751
▁dědič	-11.4752
▁hasičů	-11.4753
▁hmyzu	-11.4754
učení	-11.4755
▁havl	-11.4756
ality	-11.4757
▁větru	-11.4757
▁brigád	-11.4758
▁britským	-11.4758
▁alžír	-11.4759
▁podíleli	-11.476
▁hejtman	-11.4763
▁line	-11.4764
▁dospělých	-11.4765
▁obtížně	-11.4765
▁nepří	-11.4766
čková	-11.4767
▁hlubin	-11.4767
▁ideál	-11.4767
dikt	-11.4767
▁němuž	-11.4769
▁tchaj	-11.4769
▁operet	-11.477
▁vesnicí	-11.4771
▁kum	-11.4771
gott	-11.4777
▁brambor	-11.4777
▁burz	-11.4778
▁potřebu	-11.4779
▁komunistický	-11.4779
▁palestiny	-11.4781
věš	-11.4781
▁vstříc	-11.4781
▁rozumí	-11.4782
▁leonard	-11.4782
▁blues	-11.4783
síla	-11.4784
sever	-11.4784
▁čestným	-11.4785
▁nádrží	-11.4785
▁sloupy	-11.4786
▁přeživší	-11.4787
▁situací	-11.4787
▁severozápadě	-11.4788
▁oznámení	-11.4789
▁make	-11.4789
▁xiv	-11.4789
▁obsadili	-11.4791
▁potopen	-11.4791
▁2017.	-11.4791
▁nova	-11.4792
▁tvořilo	-11.4792
sazuje	-11.4795
▁listopad	-11.4795
▁útes	-11.4795
▁tradičních	-11.48
▁vyskytující	-11.48
▁pramenech	-11.48
▁tajemn	-11.4803
ró	-11.4804
▁vejčité	-11.4805
hej	-11.4806
▁pravomoci	-11.4806
▁observatoř	-11.4807
▁štafet	-11.4807
idlo	-11.4808
▁wu	-11.4809
iniho	-11.4809
▁proudy	-11.481
rová	-11.481
dó	-11.4811
sid	-11.4811
ffe	-11.4812
čního	-11.4813
ební	-11.4816
▁středozemního	-11.4816
▁nahrávání	-11.4817
▁nejrůznější	-11.4817
lü	-11.4818
▁lesních	-11.4818
republikán	-11.4821
▁zvuku	-11.4823
▁nezávislých	-11.4823
šl	-11.4824
▁indický	-11.4824
verze	-11.4825
dám	-11.4826
▁starověku	-11.4826
▁stephen	-11.4826
tán	-11.4826
▁vlastimil	-11.4828
▁charlese	-11.4828
onia	-11.4828
▁sochaře	-11.4829
▁krku	-11.483
▁italských	-11.483
vietnam	-11.4831
▁kluby	-11.4831
▁rituál	-11.4833
dvacet	-11.4834
▁tras	-11.4834
▁nedaleké	-11.4835
▁autenti	-11.4836
▁proměnil	-11.4837
▁ford	-11.4838
duš	-11.4839
▁95	-11.4841
▁pražská	-11.4841
▁vnitřního	-11.4842
anský	-11.4842
▁přestavbě	-11.4846
▁society	-11.4846
▁service	-11.4847
▁katalog	-11.4848
▁vlasy	-11.485
▁lehký	-11.4851
íčka	-11.4852
ologický	-11.4853
vest	-11.4855
▁zimních	-11.4855
▁vertikální	-11.4856
▁ústup	-11.4856
▁lewis	-11.4857
▁vnímán	-11.4858
istu	-11.4859
thé	-11.4861
oře	-11.4861
pras	-11.4861
▁sue	-11.4862
▁směn	-11.4862
vládl	-11.4863
▁socialismu	-11.4864
▁šlechtického	-11.4864
▁lodyhy	-11.4866
krýval	-11.4869
▁vodovod	-11.4869
▁pruhy	-11.4869
▁nosil	-11.4869
▁social	-11.487
▁nevýhodou	-11.4871
▁zásahu	-11.4872
▁osudu	-11.4872
▁ventil	-11.4873
brig	-11.4873
▁dojel	-11.4873
▁sluch	-11.4874
▁rozhlasové	-11.4875
▁monumentální	-11.4875
▁dlouhodobý	-11.4875
▁třídu	-11.4875
ller	-11.4876
▁nejlepšího	-11.4876
▁komisi	-11.4877
ležel	-11.4879
▁tance	-11.4879
▁ker	-11.488
iner	-11.4883
▁přepisu	-11.4883
růstá	-11.4883
▁pracovali	-11.4884
▁zúčastnilo	-11.4884
▁elitní	-11.4885
▁uznávaný	-11.4885
▁spojenectví	-11.4885
katedr	-11.4886
▁bohatou	-11.4887
▁nazvaný	-11.4889
▁souboji	-11.489
▁rovině	-11.489
▁oxidu	-11.489
▁adresy	-11.489
▁zakladatelů	-11.4891
▁kultivar	-11.4894
▁odeslán	-11.4896
▁obzvláště	-11.4896
▁hektarů	-11.4896
▁spojeném	-11.4899
▁klima	-11.4899
▁popud	-11.4902
▁rival	-11.4903
evič	-11.4903
▁známky	-11.4904
▁tramvajové	-11.4905
▁komedie	-11.4905
▁příměří	-11.4905
▁činila	-11.4905
tet	-11.4907
▁vele	-11.4909
▁slovník	-11.491
letého	-11.491
níček	-11.4914
▁kino	-11.4914
▁interakce	-11.4915
▁fur	-11.4915
▁spojeného	-11.4916
▁sahá	-11.4916
▁úkryt	-11.4917
beth	-11.4919
▁svahy	-11.4919
▁poloh	-11.4921
dona	-11.4923
▁wild	-11.4924
▁tvořeno	-11.4924
▁sbírce	-11.4925
▁linií	-11.4925
▁kandidátky	-11.4926
▁pozdějším	-11.4926
ostř	-11.4928
-200	-11.493
nix	-11.4931
▁hip	-11.4931
▁gun	-11.4931
▁tržní	-11.4931
platil	-11.4932
gate	-11.4933
▁tvořené	-11.4933
ark	-11.4934
▁projevu	-11.4934
▁silami	-11.4935
▁mnohých	-11.4935
▁viditelné	-11.4935
▁lingvist	-11.4935
tim	-11.4935
▁mah	-11.4937
▁plus	-11.4942
df	-11.4943
▁bolšev	-11.4944
▁zůstane	-11.4945
▁venkovských	-11.4946
▁základního	-11.4947
arg	-11.4948
":	-11.4948
dai	-11.4948
rám	-11.4949
▁kořene	-11.4949
▁páteř	-11.4955
▁velkému	-11.4957
▁variant	-11.4957
▁nahoru	-11.4957
kultur	-11.4958
▁písemné	-11.496
▁ekonomických	-11.496
▁bert	-11.4961
▁říms	-11.4964
▁mimořádné	-11.4964
ičku	-11.4965
▁volebním	-11.4965
▁mount	-11.4966
▁listiny	-11.4967
▁trenéra	-11.4967
▁saf	-11.4967
▁paliv	-11.4968
▁chovu	-11.4969
epi	-11.4971
▁slavkov	-11.4971
tai	-11.4971
▁záchrann	-11.4973
▁mega	-11.4975
▁značená	-11.4977
specialist	-11.4978
▁armád	-11.4978
▁hvězdné	-11.498
▁řádem	-11.498
▁nastoupila	-11.498
▁herce	-11.4981
▁diesel	-11.4983
manna	-11.4985
ečný	-11.4985
kruh	-11.4985
▁uživatelé	-11.4985
▁obdélník	-11.4985
▁obraně	-11.4986
▁ul	-11.4986
▁day	-11.4987
▁dominik	-11.4992
▁významnější	-11.4994
▁kvalita	-11.4994
cos	-11.4996
▁filmová	-11.4998
▁hrou	-11.5003
▁kalifornie	-11.5004
▁nedávno	-11.5004
▁výškách	-11.5005
▁rané	-11.5005
▁synonym	-11.5006
▁názorů	-11.5006
▁zrn	-11.5011
tron	-11.5011
▁semeny	-11.5011
štěp	-11.5013
▁tepla	-11.5014
▁varšavské	-11.5014
▁znamenala	-11.5016
▁cestách	-11.5017
▁brian	-11.5017
večer	-11.5018
▁vyhledá	-11.5018
svobod	-11.5019
▁pun	-11.5019
▁vzp	-11.5019
▁postoupila	-11.5021
▁zjednodušen	-11.5022
▁ksčm	-11.5022
▁pozemku	-11.5024
velký	-11.5025
▁kovový	-11.5026
▁příslušníky	-11.5027
enec	-11.5027
▁sepsal	-11.5028
▁venkovní	-11.5028
▁hermann	-11.5029
▁majitelé	-11.5031
ror	-11.5032
▁pozic	-11.5032
▁připadl	-11.5032
▁teplotu	-11.5033
▁tramvají	-11.5034
▁továrně	-11.5034
▁atentát	-11.5037
▁izraelských	-11.5037
л	-11.5039
▁budoucnost	-11.5039
▁smol	-11.504
láh	-11.5043
▁nizozemský	-11.5044
▁matematické	-11.5044
▁mid	-11.5044
▁hřích	-11.5044
▁vlád	-11.5047
▁starověké	-11.5048
assa	-11.5048
▁teoretické	-11.5049
brook	-11.505
▁jenže	-11.5051
▁dekor	-11.5052
víz	-11.5054
▁rozvíjet	-11.5054
▁předcházející	-11.5054
▁souprav	-11.5055
▁architektonické	-11.5056
ochr	-11.5056
▁převážn	-11.5057
▁časopisech	-11.5057
řice	-11.5059
▁dělnické	-11.5062
▁podobnost	-11.5063
sněž	-11.5063
esnického	-11.5065
▁jiném	-11.5066
▁hormon	-11.5066
▁sociologie	-11.5068
ničky	-11.5068
▁media	-11.5069
▁právem	-11.507
▁upravené	-11.507
rce	-11.507
!“	-11.507
pedia	-11.5071
▁příběhů	-11.5074
▁viceprezident	-11.5074
▁vyrobené	-11.5076
▁german	-11.5077
▁stříbro	-11.5077
▁1200	-11.5077
post	-11.5078
▁perl	-11.5078
▁vinař	-11.5084
▁hromadné	-11.5084
▁nahrávky	-11.5084
▁luxusní	-11.5084
▁činný	-11.5084
buněčné	-11.5085
▁plynů	-11.5086
▁irska	-11.5086
▁prvními	-11.5088
▁zvláštním	-11.5089
▁slitin	-11.5091
▁%),	-11.5091
▁věznice	-11.5093
▁mechanismus	-11.5093
ffer	-11.5094
▁austral	-11.5094
krvav	-11.5095
▁detail	-11.5097
vie	-11.5098
▁švagr	-11.5098
▁ukáže	-11.5099
▁extrémně	-11.5099
▁říší	-11.5101
▁muzikálu	-11.5104
cord	-11.5105
▁stažení	-11.5106
▁slezsku	-11.5106
wr	-11.5106
volil	-11.5106
ids	-11.5112
▁originál	-11.5114
▁koč	-11.5114
▁ovlivňují	-11.5115
▁přilehlé	-11.5115
▁molekuly	-11.5116
▁generací	-11.5117
sey	-11.5118
izovaných	-11.5118
▁strýce	-11.5118
▁horší	-11.5119
made	-11.512
tip	-11.512
hlo	-11.5121
nest	-11.5122
▁synagoga	-11.5124
▁velikého	-11.5125
▁tehdejších	-11.5126
▁rozhovor	-11.5128
▁divo	-11.5128
▁klidu	-11.5128
–3	-11.5134
tc	-11.5134
▁kulturním	-11.5134
▁sezonu	-11.5137
▁horno	-11.5138
▁výrobci	-11.5139
▁odstup	-11.5143
▁hád	-11.5143
enka	-11.5144
analyz	-11.5144
▁uložena	-11.5144
▁kapacitou	-11.5145
▁misionář	-11.5145
▁těžší	-11.5145
▁knihovně	-11.5146
▁štěpána	-11.5147
▁1856	-11.5149
▁2:0	-11.515
▁pomocné	-11.5151
▁studené	-11.5152
▁vstupuje	-11.5152
▁mix	-11.5154
$	-11.5155
▁zachovala	-11.5155
▁uvést	-11.5155
měrné	-11.5156
▁malba	-11.5158
▁ženský	-11.5159
▁vydávají	-11.5159
▁kvete	-11.5161
▁občany	-11.5163
▁žádá	-11.5163
▁müller	-11.5164
▁celosvětově	-11.5165
▁inspektor	-11.5165
▁kališní	-11.5165
▁ostrý	-11.5165
▁nátlak	-11.5166
▁hospodářský	-11.5166
▁tabulce	-11.5167
hul	-11.5169
▁třicet	-11.517
▁vítězné	-11.5171
▁úvodním	-11.5172
▁spojený	-11.5173
▁main	-11.5173
▁umělecký	-11.5173
ectví	-11.5173
▁francouzi	-11.5174
▁webových	-11.5175
▁nabízel	-11.5175
zek	-11.5175
▁mikroskop	-11.5175
▁vesměs	-11.5175
ко	-11.5175
▁pozdějšího	-11.5179
▁dni	-11.518
▁lup	-11.5181
horské	-11.5181
verb	-11.5182
▁horizont	-11.5184
▁stříbrnou	-11.5188
▁spojenců	-11.5188
▁kráter	-11.5188
vající	-11.5189
▁maďarský	-11.5191
▁automobily	-11.5192
▁hale	-11.5193
gat	-11.5194
▁aminokyselin	-11.5196
▁redakce	-11.5196
▁skóre	-11.5196
▁praktický	-11.5196
▁gut	-11.5196
▁národy	-11.5196
ložení	-11.5197
▁slabé	-11.5199
▁vřes	-11.52
▁1858	-11.5201
▁oboupohlavné	-11.5206
pověd	-11.5206
▁světelných	-11.5208
▁klenot	-11.5209
▁periodik	-11.521
▁budovou	-11.5212
▁opoziční	-11.5214
▁vnitřním	-11.5216
[...]
